{
  "version": "1.0",
  "truncation": {
    "direction": "Right",
    "max_length": 128,
    "strategy": "LongestFirst",
    "stride": 0
  },
  "padding": {
    "strategy": {
      "Fixed": 128
    },
    "direction": "Right",
    "pad_to_multiple_of": null,
    "pad_id": 0,
    "pad_type_id": 0,
    "pad_token": "[PAD]"
  },
  "added_tokens": [
    {
      "id": 0,
      "content": "[PAD]",
      "single_word": false,
      "lstrip": false,
      "rstrip": false,
      "normalized": false,
      "special": true
    },
    {
      "id": 1,
      "content": "[UNK]",
      "single_word": false,
      "lstrip": false,
      "rstrip": false,
      "normalized": false,
      "special": true
    },
    {
      "id": 2,
      "content": "[CLS]",
      "single_word": false,
      "lstrip": false,
      "rstrip": false,
      "normalized": false,
      "special": true
    },
    {
      "id": 3,
      "content": "[SEP]",
      "single_word": false,
      "lstrip": false,
      "rstrip": false,
      "normalized": false,
      "special": true
    },
    {
      "id": 4,
      "content": "[MASK]",
      "single_word": false,
      "lstrip": false,
      "rstrip": false,
      "normalized": false,
      "special": true
    }
  ],
  "normalizer": {
    "type": "BertNormalizer",
    "clean_text": true,
    "handle_chinese_chars": true,
    "strip_accents": null,
    "lowercase": true
  },
  "pre_tokenizer": {
    "type": "BertPreTokenizer"
  },
  "post_processor": {
    "type": "TemplateProcessing",
    "single": [
      {
        "SpecialToken": {
          "id": "[CLS]",
          "type_id": 0
        }
      },
      {
        "Sequence": {
          "id": "A",
          "type_id": 0
        }
      },
      {
        "SpecialToken": {
          "id": "[SEP]",
          "type_id": 0
        }
      }
    ],
    "pair": [
      {
        "SpecialToken": {
          "id": "[CLS]",
          "type_id": 0
        }
      },
      {
        "Sequence": {
          "id": "A",
          "type_id": 0
        }
      },
      {
        "SpecialToken": {
          "id": "[SEP]",
          "type_id": 0
        }
      },
      {
        "Sequence": {
          "id": "B",
          "type_id": 1
        }
      },
      {
        "SpecialToken": {
          "id": "[SEP]",
          "type_id": 1
        }
      }
    ],
    "special_tokens": {
      "[CLS]": {
        "id": "[CLS]",
        "ids": [
          2
        ],
        "tokens": [
          "[CLS]"
        ]
      },
      "[SEP]": {
        "id": "[SEP]",
        "ids": [
          3
        ],
        "tokens": [
          "[SEP]"
        ]
      }
    }
  },
  "decoder": {
    "type": "WordPiece",
    "prefix": "##",
    "cleanup": true
  },
  "model": {
    "type": "WordPiece",
    "unk_token": "[UNK]",
    "continuing_subword_prefix": "##",
    "max_input_chars_per_word": 100,
    "vocab": {
      "[PAD]": 0,
      "[UNK]": 1,
      "[CLS]": 2,
      "[SEP]": 3,
      "[MASK]": 4,
      ",": 5,
      "-": 6,
      "0": 7,
      "1": 8,
      "2": 9,
      "3": 10,
      "4": 11,
      "5": 12,
      "6": 13,
      "7": 14,
      "8": 15,
      "9": 16,
      "?": 17,
      "a": 18,
      "b": 19,
      "c": 20,
      "d": 21,
      "e": 22,
      "f": 23,
      "g": 24,
      "h": 25,
      "i": 26,
      "k": 27,
      "l": 28,
      "m": 29,
      "n": 30,
      "o": 31,
      "p": 32,
      "q": 33,
      "r": 34,
      "s": 35,
      "t": 36,
      "u": 37,
      "v": 38,
      "w": 39,
      "x": 40,
      "y": 41,
      "z": 42,
      "##a": 43,
      "##l": 44,
      "##1": 45,
      "##p": 46,
      "##n": 47,
      "##2": 48,
      "##c": 49,
      "##6": 50,
      "##m": 51,
      "##o": 52,
      "##e": 53,
      "##i": 54,
      "##b": 55,
      "##g": 56,
      "##r": 57,
      "##x": 58,
      "##h": 59,
      "##d": 60,
      "##t": 61,
      "##4": 62,
      "##u": 63,
      "##s": 64,
      "##f": 65,
      "##v": 66,
      "##5": 67,
      "##3": 68,
      "##z": 69,
      "##y": 70,
      "##7": 71,
      "##9": 72,
      "##8": 73,
      "##w": 74,
      "b1": 75,
      "##ac": 76,
      "##lc": 77,
      "glc": 78,
      "##nac": 79,
      "a1": 80,
      "glcnac": 81,
      "##al": 82,
      "gal": 83,
      "##an": 84,
      "man": 85,
      "##uc": 86,
      "fuc": 87,
      "a2": 88,
      "##eu": 89,
      "neu": 90,
      "neu5": 91,
      "neu5ac": 92,
      "galnac": 93,
      "rh": 94,
      "rha": 95,
      "##gc": 96,
      "neu5gc": 97,
      "##yl": 98,
      "xyl": 99,
      "##me": 100,
      "glca": 101,
      "kd": 102,
      "glcn": 103,
      "##he": 104,
      "ol": 105,
      "##hep": 106,
      "##man": 107,
      "##dman": 108,
      "##dmanhep": 109,
      "##ra": 110,
      "ara": 111,
      "kdo": 112,
      "ldmanhep": 113,
      "##6s": 114,
      "##op": 115,
      "galf": 116,
      "araf": 117,
      "##2s": 118,
      "gala": 119,
      "##3me": 120,
      "qu": 121,
      "qui": 122,
      "he": 123,
      "##ome": 124,
      "hex": 125,
      "##ro": 126,
      "kdn": 127,
      "##ru": 128,
      "fru": 129,
      "##et": 130,
      "##3s": 131,
      "fruf": 132,
      "glcnac6s": 133,
      "##6p": 134,
      "glc1": 135,
      "##er": 136,
      "##etn": 137,
      "##os": 138,
      "##cer": 139,
      "ri": 140,
      "rib": 141,
      "##do": 142,
      "ido": 143,
      "##6ac": 144,
      "glc1cer": 145,
      "##4p": 146,
      "##1p": 147,
      "fucnac": 148,
      "idoa": 149,
      "b2": 150,
      "##4s": 151,
      "quinac": 152,
      "##2ac": 153,
      "glcn2s": 154,
      "##4ac": 155,
      "##yr": 156,
      "hexnac": 157,
      "mannac": 158,
      "##oac": 159,
      "##3ac": 160,
      "##4n": 161,
      "##nh": 162,
      "anh": 163,
      "##dro": 164,
      "##ydro": 165,
      "anhydro": 166,
      "gal3me": 167,
      "ldmanhepop": 168,
      "##2me": 169,
      "##gro": 170,
      "6d": 171,
      "idoa2s": 172,
      "##6me": 173,
      "##4me": 174,
      "ribf": 175,
      "man6p": 176,
      "ddmanhep": 177,
      "gal3s": 178,
      "##tal": 179,
      "6dtal": 180,
      "##ch": 181,
      "##cho": 182,
      "##1n": 183,
      "glcn2s6s": 184,
      "galnac4s": 185,
      "##2nac": 186,
      "##3nac": 187,
      "galn": 188,
      "gal6s": 189,
      "##5ac": 190,
      "##fo": 191,
      "galos": 192,
      "glcn1p": 193,
      "##petn": 194,
      "##bu": 195,
      "##but": 196,
      "glcn4p": 197,
      "glc2s": 198,
      "glcnacos": 199,
      "glc6ac": 200,
      "di": 201,
      "manome": 202,
      "dig": 203,
      "manop": 204,
      "##ul": 205,
      "##3n": 206,
      "rha4n": 207,
      "##ala": 208,
      "mana": 209,
      "mannaca": 210,
      "gul": 211,
      "galnaca": 212,
      "##am": 213,
      "man3me": 214,
      "##3s6s": 215,
      "glcnac1n": 216,
      "##myr": 217,
      "##4pyr": 218,
      "##3p": 219,
      "glcnacop": 220,
      "glcnac6p": 221,
      "##6n": 222,
      "xylf": 223,
      "ribop": 224,
      "##9ac": 225,
      "kdoop": 226,
      "##3ac4ac": 227,
      "galop": 228,
      "rha2ac": 229,
      "##5p": 230,
      "##ol": 231,
      "##1me": 232,
      "ldmanhepopetn": 233,
      "##2p": 234,
      "##7ac": 235,
      "##hex": 236,
      "ps": 237,
      "##be": 238,
      "abe": 239,
      "pse": 240,
      "##cm": 241,
      "glcop": 242,
      "##2me3me": 243,
      "al": 244,
      "##4nac": 245,
      "man1p": 246,
      "##ic": 247,
      "rhaome": 248,
      "glcn2": 249,
      "rib5p": 250,
      "rha4nfo": 251,
      "rhanac": 252,
      "gal4s": 253,
      "glc2ac": 254,
      "##2nac3nac": 255,
      "glca4me": 256,
      "##ns": 257,
      "##ocm": 258,
      "ins": 259,
      "##3s4s": 260,
      "galnac6s": 261,
      "##5ac7ac": 262,
      "glcnacopcho": 263,
      "neu5ac9ac": 264,
      "##nic": 265,
      "rha2me": 266,
      "glcnaca": 267,
      "manos": 268,
      "galnacos": 269,
      "fuc2me": 270,
      "dig3me": 271,
      "glcome": 272,
      "rha3me": 273,
      "##hr": 274,
      "##en": 275,
      "glc6me": 276,
      "oli": 277,
      "man6petn": 278,
      "gal3p": 279,
      "quin": 280,
      "onic": 281,
      "glc6s": 282,
      "gal6p": 283,
      "glcnac1p": 284,
      "neu4ac": 285,
      "gala2nac": 286,
      "glcn2s3s6s": 287,
      "glc6p": 288,
      "manopetn": 289,
      "ap": 290,
      "ty": 291,
      "fucome": 292,
      "api": 293,
      "tyv": 294,
      "fuc2s": 295,
      "##3ac4ac6ac": 296,
      "##eg": 297,
      "rhaoac": 298,
      "##lac": 299,
      "##co": 300,
      "##thr": 301,
      "gula": 302,
      "##ly": 303,
      "apif": 304,
      "galnacop": 305,
      "glca3s": 306,
      "glcnac6pcho": 307,
      "##cl": 308,
      "ribf1n": 309,
      "gulnac": 310,
      "gal2ac": 311,
      "glc2s3s6s": 312,
      "gal4pyr": 313,
      "fucn": 314,
      "qui3nac": 315,
      "##ara": 316,
      "##3myr": 317,
      "manf": 318,
      "glca6me": 319,
      "qui4n": 320,
      "col": 321,
      "##ar": 322,
      "ldmanhepoppetn": 323,
      "neu4ac5ac": 324,
      "##ep": 325,
      "hexa": 326,
      "hexome": 327,
      "##aep": 328,
      "##6aep": 329,
      "ara4n": 330,
      "##arahex": 331,
      "glcnac6ac": 332,
      "all": 333,
      "##au": 334,
      "6dal": 335,
      "mana2nac3nac": 336,
      "glcnac6petn": 337,
      "galoac": 338,
      "galnala": 339,
      "mu": 340,
      "##pgro": 341,
      "##6pyr": 342,
      "gal4pyr6pyr": 343,
      "mur": 344,
      "glcn2myr": 345,
      "##lau": 346,
      "##3s4s6s": 347,
      "alt": 348,
      "glcnacoac": 349,
      "##3ac6ac": 350,
      "manf1me": 351,
      "4d": 352,
      "murnac": 353,
      "glca2s": 354,
      "glcn3s": 355,
      "##fer": 356,
      "##6petn": 357,
      "##nbut": 358,
      "rha3ac": 359,
      "gal2s": 360,
      "ldmanhep4p": 361,
      "fucnacn": 362,
      "ko": 363,
      "galopgro": 364,
      "glc3me": 365,
      "glcnacn": 366,
      "glcaome": 367,
      "fucnac4n": 368,
      "6dalt": 369,
      "##4ac6ac": 370,
      "6dtaloac": 371,
      "##olac": 372,
      "glc2me3me": 373,
      "manoac": 374,
      "6darahex": 375,
      "gal4me": 376,
      "kdo4p": 377,
      "gulnaca": 378,
      "leg": 379,
      "##vac": 380,
      "rha4ac": 381,
      "fruf1": 382,
      "galome": 383,
      "man2ac": 384,
      "pen": 385,
      "##1cer": 386,
      "man6me": 387,
      "galaome": 388,
      "pse5ac7ac": 389,
      "gala6n": 390,
      "##3petn": 391,
      "galopyr": 392,
      "##1pp": 393,
      "6dtal2ac": 394,
      "##2nac3n": 395,
      "par": 396,
      "6darahexome": 397,
      "gal2me": 398,
      "galf2ac": 399,
      "##bz": 400,
      "gal6me": 401,
      "glc2s3s4s6s": 402,
      "##anam": 403,
      "man6ac": 404,
      "kdooppetn": 405,
      "galnacopcho": 406,
      "##3lac": 407,
      "glc3s": 408,
      "glc4pyr": 409,
      "ldmanhepopocm": 410,
      "galnacome": 411,
      "glc1p": 412,
      "4dthr": 413,
      "##4en": 414,
      "galnac6p": 415,
      "ly": 416,
      "##3et": 417,
      "glc2": 418,
      "glcos": 419,
      "##opn": 420,
      "lyx": 421,
      "a6": 422,
      "tal": 423,
      "man6s": 424,
      "rha4nac": 425,
      "gala6me": 426,
      "glcn3n": 427,
      "quinac4nac": 428,
      "galnacaoac": 429,
      "4dthrhex": 430,
      "gal1cer": 431,
      "qui3n": 432,
      "idoa2s3et": 433,
      "##2n": 434,
      "glc2p": 435,
      "fucoac": 436,
      "##4s6s": 437,
      "gala2nac3ac": 438,
      "##dco": 439,
      "glcnacan": 440,
      "glcnme": 441,
      "##4nbut": 442,
      "digome": 443,
      "##alaac": 444,
      "kdoopetn": 445,
      "glcnaca3nac": 446,
      "##um": 447,
      "gala6": 448,
      "##4me6s": 449,
      "glcn1p2": 450,
      "##coum": 451,
      "glcn2myr3myr": 452,
      "bac": 453,
      "er": 454,
      "mann": 455,
      "##gly": 456,
      "glc3ac": 457,
      "man2": 458,
      "galnac3s": 459,
      "##4pgro": 460,
      "mannacanam": 461,
      "##gron": 462,
      "psenac": 463,
      "b6": 464,
      "##leg": 465,
      "##obz": 466,
      "##eleg": 467,
      "gal6ac": 468,
      "rha3petn": 469,
      "rha4nbut": 470,
      "mannaca3nac": 471,
      "##ole": 472,
      "##2pam": 473,
      "gal3pyr": 474,
      "ery": 475,
      "##1fer": 476,
      "##dg": 477,
      "##4lac": 478,
      "glcnac3ac": 479,
      "man4ac": 480,
      "ldmanhep6petn": 481,
      "galnac4s6s": 482,
      "glcopyr": 483,
      "neu9ac": 484,
      "##8me": 485,
      "man4me": 486,
      "fuc3n": 487,
      "##2ac3ac": 488,
      "glc2s4s6s": 489,
      "glc2ac3ac6ac": 490,
      "6dmanhep": 491,
      "ar": 492,
      "##a4en": 493,
      "##3dco": 494,
      "glcnac6": 495,
      "ara1p": 496,
      "galaoac": 497,
      "fuc2s4s": 498,
      "##lyx": 499,
      "bac2ac": 500,
      "gal3pyr4pyr": 501,
      "##te": 502,
      "##6sn": 503,
      "glc2s6sn": 504,
      "ul": 505,
      "##1vac": 506,
      "man1": 507,
      "man2p": 508,
      "##opgro": 509,
      "##5ac7": 510,
      "4dthrhexa4en": 511,
      "ulos": 512,
      "8eleg": 513,
      "##6et": 514,
      "fuc2me3me": 515,
      "glc1fer": 516,
      "mana2nac3n": 517,
      "glc6pgro": 518,
      "gal1p": 519,
      "man2me": 520,
      "glcn2pam": 521,
      "araopn": 522,
      "##opetn": 523,
      "aran": 524,
      "##ser": 525,
      "##alhep": 526,
      "fucf": 527,
      "neu5acoac": 528,
      "xylome": 529,
      "glcaos": 530,
      "rib1p": 531,
      "quinacnbut": 532,
      "glc2me3me6me": 533,
      "3d": 534,
      "ddg": 535,
      "##lu": 536,
      "##6cl": 537,
      "glc4me": 538,
      "glc3ac4ac6ac": 539,
      "neu1n": 540,
      "neu5ac7ac": 541,
      "galnacan": 542,
      "galnfo": 543,
      "su": 544,
      "##4cl": 545,
      "##3c": 546,
      "fuc3me": 547,
      "glca6": 548,
      "glca2nac3nac": 549,
      "glcn2me": 550,
      "fucnacoac": 551,
      "idoa2s3me": 552,
      "6dtal3me": 553,
      "oli3nac": 554,
      "glcnac6gc": 555,
      "ara1p4n": 556,
      "sug": 557,
      "##3lau": 558,
      "##8s": 559,
      "rha4me": 560,
      "glca2me3me": 561,
      "glcn6ac": 562,
      "##3me4me6s": 563,
      "xlu": 564,
      "##1gro": 565,
      "##obut": 566,
      "glcpgro": 567,
      "glcn6aep": 568,
      "gala1p": 569,
      "6dtalome": 570,
      "glcopgro": 571,
      "galnac6pcho": 572,
      "ddgalhep": 573,
      "xluf": 574,
      "glcgro": 575,
      "gala6ala": 576,
      "glcnac4p": 577,
      "fuc4s": 578,
      "##opyr": 579,
      "gala3me": 580,
      "glc2s3s": 581,
      "galnaca6n": 582,
      "abe2ac": 583,
      "gala2nac6n": 584,
      "fucnam": 585,
      "leg5ac7ac": 586,
      "penf": 587,
      "bac2ac4ac": 588,
      "11": 589,
      "##6f": 590,
      "##ys": 591,
      "##7petn": 592,
      "gal4p": 593,
      "gal2p": 594,
      "fuc3s": 595,
      "fucos": 596,
      "neu5ac9": 597,
      "rhagro": 598,
      "neu5gc8me": 599,
      "glc1n": 600,
      "glc1me": 601,
      "glc1gro": 602,
      "6dg": 603,
      "mana6me": 604,
      "pse5ac7": 605,
      "gal2ac3ac4ac6ac": 606,
      "##1coum": 607,
      "##or": 608,
      "glc4s": 609,
      "man3p": 610,
      "man1me": 611,
      "ldmanhepocm": 612,
      "qui2me": 613,
      "frufobz": 614,
      "##ama": 615,
      "rha2ac4ac": 616,
      "galnacaoacn": 617,
      "8eleg5ac7ac": 618,
      "thr": 619,
      "##rop": 620,
      "glcnacgro": 621,
      "glcnac3lac": 622,
      "man6aep": 623,
      "glca6ac": 624,
      "hexnacos": 625,
      "mana2nac": 626,
      "quinbut": 627,
      "glcnac1pp": 628,
      "altnac": 629,
      "glcn3n4p": 630,
      "glcnmeocm": 631,
      "glcn1p2myr": 632,
      "man2petn": 633,
      "##lyxhep": 634,
      "thre": 635,
      "sor": 636,
      "##oetn": 637,
      "##omyr": 638,
      "glcnac3ac6ac": 639,
      "##alys": 640,
      "gal4cl": 641,
      "fuc2ac": 642,
      "rha2me3me": 643,
      "glc1ole": 644,
      "##ery": 645,
      "##lys": 646,
      "man1s": 647,
      "##nfo": 648,
      "galnac3ac": 649,
      "rha3ac4ac": 650,
      "xyl3me": 651,
      "quinac4nbut": 652,
      "mannac1p": 653,
      "##alafo": 654,
      "glcopn": 655,
      "fuc2me4ac": 656,
      "gal3pgro": 657,
      "##aric": 658,
      "fruf1cl": 659,
      "ulosaric": 660,
      "3dlyxhep": 661,
      "neu1n5ac": 662,
      "galnfoa": 663,
      "##3cme": 664,
      "6dgul": 665,
      "altnaca": 666,
      "dl": 667,
      "##6nac": 668,
      "##8ac": 669,
      "glc4ac": 670,
      "glcnac1me": 671,
      "gal2": 672,
      "rha1p": 673,
      "glca6s": 674,
      "glca2me": 675,
      "glcn6s": 676,
      "hep": 677,
      "##2ac3ac4ac": 678,
      "rha2ac3ac4ac": 679,
      "gula2nac3nac": 680,
      "gal2ac4ac6ac": 681,
      "qui4nfo": 682,
      "##lau3dco": 683,
      "6dtaloacome": 684,
      "glc2me3me4me": 685,
      "kdo4ppetn": 686,
      "psenacnbut": 687,
      "##xyl": 688,
      "gal6aep": 689,
      "fuc4ac": 690,
      "galnac1p": 691,
      "ldmanhep6p": 692,
      "galagron": 693,
      "glcn2s3s": 694,
      "glc2ac3ac4ac6ac": 695,
      "quinalaac": 696,
      "allnac": 697,
      "ldmanhep4ppetn": 698,
      "fucnacnme": 699,
      "##xylhex": 700,
      "1d": 701,
      "yer": 702,
      "glcnac3me": 703,
      "galfoac": 704,
      "manopyr": 705,
      "##ulo": 706,
      "##3nam": 707,
      "##3pgro": 708,
      "glcn2myr3myr4p": 709,
      "fuc3nbut": 710,
      "gal2pgro": 711,
      "##nam": 712,
      "##ero": 713,
      "##4f": 714,
      "xyl2me": 715,
      "##1pam": 716,
      "##groa": 717,
      "glc2s3s4s": 718,
      "glc2s3me4me6s": 719,
      "6dtal2ac3me": 720,
      "glc1pam": 721,
      "pse5ac7fo": 722,
      "##br": 723,
      "glcolac": 724,
      "glcnac3s": 725,
      "man2s": 726,
      "neu5ac8s": 727,
      "glca2nac": 728,
      "glca2nac3n": 729,
      "glcn3s6s": 730,
      "ldmanhep3petn": 731,
      "galfnac": 732,
      "gala4ac": 733,
      "gala2n": 734,
      "fucnac4ac": 735,
      "fucnac4nac": 736,
      "glcn2ste": 737,
      "6dxylhex": 738,
      "##5ac6ac": 739,
      "gal6petn": 740,
      "glca2s3me": 741,
      "6daltf": 742,
      "fucoacome": 743,
      "glcnacanalafo": 744,
      "neu5ac9nac": 745,
      "qui2me4n": 746,
      "##nme": 747,
      "##7p": 748,
      "glcan": 749,
      "glc6n": 750,
      "glcnac4me": 751,
      "gal4ac": 752,
      "gal3ac": 753,
      "man4pyr": 754,
      "rhan": 755,
      "rhaobut": 756,
      "xyl3ac": 757,
      "glcn3ac4ac6ac": 758,
      "gala2s": 759,
      "glc1pgro": 760,
      "galnaca3ac": 761,
      "galopcho": 762,
      "pse5": 763,
      "oli4me": 764,
      "galnacopgro": 765,
      "6dall": 766,
      "legnac": 767,
      "fruf1ac": 768,
      "6dgulhep": 769,
      "1dery": 770,
      "##2vac": 771,
      "##onic": 772,
      "##4ulo": 773,
      "##fero": 774,
      "##5gc": 775,
      "glc4ac6ac": 776,
      "glcnac4lac": 777,
      "gal3": 778,
      "neu1me": 779,
      "rha3s": 780,
      "glca2p": 781,
      "glcaolac": 782,
      "6dhex": 783,
      "6dtal2me": 784,
      "glc2ac3ac": 785,
      "rha2me4n": 786,
      "rha2me4me": 787,
      "rha2me4nbut": 788,
      "fruf1fero": 789,
      "ulosonic": 790,
      "gal1pgro": 791,
      "glcn2pam3myr": 792,
      "##3lau4p": 793,
      "sorf": 794,
      "glca2pyr": 795,
      "dh": 796,
      "##2ala": 797,
      "##on": 798,
      "##5s": 799,
      "##5nac": 800,
      "glcnac1": 801,
      "gal1me": 802,
      "gal6f": 803,
      "man3s": 804,
      "fuc4n": 805,
      "galnac6ac": 806,
      "neu5gc8s": 807,
      "xyl4s": 808,
      "glcn6petn": 809,
      "glcnama": 810,
      "glcnomyr": 811,
      "kdo5p": 812,
      "qui4nac": 813,
      "idonac": 814,
      "mannaca4ac": 815,
      "mannaca3nam": 816,
      "quinala": 817,
      "##thrac": 818,
      "alta": 819,
      "glc3me6me": 820,
      "qui3nbut": 821,
      "frufobz1fer": 822,
      "fruf1ferobz": 823,
      "dha": 824,
      "##2myr": 825,
      "##mar": 826,
      "##9me": 827,
      "glc3p": 828,
      "glcnacome": 829,
      "man3ac": 830,
      "man4lac": 831,
      "galnac3me": 832,
      "galnac1pp": 833,
      "galnac3pgro": 834,
      "xyl1n": 835,
      "glca2n": 836,
      "araome": 837,
      "kdo7petn": 838,
      "galf5ac6ac": 839,
      "##et4s": 840,
      "##et3s4s": 841,
      "glcn2s3me4me6s": 842,
      "mannacan": 843,
      "gal3s6s": 844,
      "glc6ac1fer": 845,
      "galopetn": 846,
      "glcn2vac": 847,
      "glca4me6n": 848,
      "rha3me4me": 849,
      "gal6pcho": 850,
      "fucnbut": 851,
      "glcn2myr3n": 852,
      "4darahex": 853,
      "glc2f": 854,
      "glcnme1vac": 855,
      "psenacnfo": 856,
      "glc1fer6ac": 857,
      "neu5ac7ac9ac": 858,
      "##lau3dco4p": 859,
      "gal3f": 860,
      "##et4s6et": 861,
      "##et3s4s6et": 862,
      "2d": 863,
      "##non": 864,
      "##6i": 865,
      "##6gly": 866,
      "##glc": 867,
      "##7fo": 868,
      "glc3s6s": 869,
      "glcnac4pgro": 870,
      "galgro": 871,
      "galalys": 872,
      "##an4en": 873,
      "man4n": 874,
      "man4ac6ac": 875,
      "fuc3s4s": 876,
      "rhaop": 877,
      "neu5gc9ac": 878,
      "xyl4ac": 879,
      "glcns": 880,
      "kdof": 881,
      "ldmanhep7petn": 882,
      "fruf4ac": 883,
      "frufoac": 884,
      "quinac4n": 885,
      "mannac2nac": 886,
      "6dtalnac": 887,
      "##3pyr": 888,
      "rhanac3nac": 889,
      "neu4ac5gc": 890,
      "gulnacanam": 891,
      "gal2s3s4s6s": 892,
      "6dalthep": 893,
      "fruf1coum": 894,
      "neu1me5ac": 895,
      "5d": 896,
      "##3fo": 897,
      "glcnac4pyr": 898,
      "glcnac6aep": 899,
      "gal6n": 900,
      "fuc3ac": 901,
      "fuc3ac4ac": 902,
      "galnac6me": 903,
      "rhaos": 904,
      "rhaolac": 905,
      "rha1gro": 906,
      "neu5gcos": 907,
      "glca3lac": 908,
      "glcagron": 909,
      "glcn6p": 910,
      "glcnbut": 911,
      "glcncm": 912,
      "kdo8": 913,
      "kdo1me": 914,
      "ldmanhepoac": 915,
      "##6ser": 916,
      "##opcho": 917,
      "galf6ac": 918,
      "##2suc": 919,
      "galaop": 920,
      "galaala": 921,
      "rib3p": 922,
      "##oacop": 923,
      "gal3s4s": 924,
      "galn2suc": 925,
      "glcn1ppetn": 926,
      "mannaca2nac": 927,
      "glcn2lau3dco4p": 928,
      "glca4me6me": 929,
      "glc3me4pyr": 930,
      "gulnaca3nac": 931,
      "6dtal2ac4ac": 932,
      "gala6lys": 933,
      "glcn1p2lau": 934,
      "man1etn": 935,
      "fuc2me3me4me": 936,
      "man2me4me": 937,
      "galnfoan": 938,
      "fucosome": 939,
      "glc1ole6ac": 940,
      "glca2nac3n6n": 941,
      "glca2pyr3pyr": 942,
      "9dg": 943,
      "b3": 944,
      "##as": 945,
      "##pcho": 946,
      "##pen": 947,
      "##oco": 948,
      "##in": 949,
      "glc3lac": 950,
      "##nac4ulo": 951,
      "galan": 952,
      "galolac": 953,
      "fuc1p": 954,
      "xyl4me": 955,
      "xyl2p": 956,
      "ara2ac": 957,
      "galf6p": 958,
      "quiome": 959,
      "fruf4ac6ac": 960,
      "glc1coum": 961,
      "quinacn": 962,
      "hexnacopcho": 963,
      "mannac6petn": 964,
      "6dtal4ac": 965,
      "glcn1petn": 966,
      "dig3ac": 967,
      "manopcho": 968,
      "##alabut": 969,
      "##am7": 970,
      "kdoopn": 971,
      "glcopetn": 972,
      "glcopcho": 973,
      "glcn2ala": 974,
      "glcnaca3n": 975,
      "quinfo": 976,
      "glcnac1prop": 977,
      "glc6pcho": 978,
      "qui4nalabut": 979,
      "manf1me5p": 980,
      "parf": 981,
      "4dthrhexan4en": 982,
      "frufobz1coum": 983,
      "glcn1p2myr3myr": 984,
      "glc1pam6ac": 985,
      "6dxylhexnac4ulo": 986,
      "pse5am7": 987,
      "2darahex": 988,
      "quinac4nhex": 989,
      "fruf1coumobz": 990,
      "##asp": 991,
      "se": 992,
      "##oc": 993,
      "##ido": 994,
      "##4gc": 995,
      "##3gc": 996,
      "glc3s4s": 997,
      "glc6nac": 998,
      "glc6i": 999,
      "glcnac6me": 1000,
      "glcnac3nac": 1001,
      "glcnac3s6s": 1002,
      "glcnac3ac4ac6ac": 1003,
      "##alt": 1004,
      "gal1pp": 1005,
      "##me5ac": 1006,
      "glca4lac": 1007,
      "glcaser": 1008,
      "glcn1n": 1009,
      "ldmanhep2p": 1010,
      "galf5p": 1011,
      "araf1fer": 1012,
      "##2ste": 1013,
      "gala2ac": 1014,
      "gala6ser": 1015,
      "##3meopn": 1016,
      "qui6s": 1017,
      "kdnome": 1018,
      "fru3meopn": 1019,
      "idon": 1020,
      "quinacpgro": 1021,
      "quinacopgro": 1022,
      "##6meopn": 1023,
      "ddmanhepop": 1024,
      "manaoac": 1025,
      "pse7fo": 1026,
      "glcn2fo": 1027,
      "glcn2lau": 1028,
      "oli3me": 1029,
      "glcnac1pgro": 1030,
      "##thrpen": 1031,
      "gula2nac3n": 1032,
      "gal2ac3ac6ac": 1033,
      "qui4nbut": 1034,
      "alln": 1035,
      "all2ac3ac": 1036,
      "mana2nac3nac6n": 1037,
      "glcn2myr3dco": 1038,
      "glcn2myr3lau4p": 1039,
      "6daltoac": 1040,
      "glc2me3me6s": 1041,
      "gala2nac3ac4me": 1042,
      "neu1nme5ac": 1043,
      "##4cl6cl": 1044,
      "glca6gron": 1045,
      "pse5ac7but": 1046,
      "man3pme": 1047,
      "glcnmeocm1vac": 1048,
      "glcopnomyr": 1049,
      "gal2f": 1050,
      "gal2pgro6meopn": 1051,
      "##2myr3myr": 1052,
      "glcnme1vacocm": 1053,
      "kdo8p": 1054,
      "2darahexa": 1055,
      "sed": 1056,
      "##idohep": 1057,
      "4eleg": 1058,
      "fu": 1059,
      "ld": 1060,
      "##nala": 1061,
      "##2f": 1062,
      "##cn": 1063,
      "##6ala": 1064,
      "##6thr": 1065,
      "##ogly": 1066,
      "##7cm": 1067,
      "glcf": 1068,
      "glc4p": 1069,
      "glcnac4nac": 1070,
      "##alac": 1071,
      "##alalac": 1072,
      "gal4ac6ac": 1073,
      "gal4f": 1074,
      "man3n": 1075,
      "manolac": 1076,
      "galnac6petn": 1077,
      "rha2s": 1078,
      "xyl2nac": 1079,
      "xyl2ac3ac": 1080,
      "glca4ac": 1081,
      "ara2ac3ac4ac": 1082,
      "ldmanhep7p": 1083,
      "galf1": 1084,
      "gala3ac": 1085,
      "galaser": 1086,
      "glc1s": 1087,
      "quinacoac": 1088,
      "##oacn": 1089,
      "man6pcho": 1090,
      "ddmanhepopetn": 1091,
      "ddmanhepoetn": 1092,
      "galn2ala": 1093,
      "##3pam": 1094,
      "glcn2ole": 1095,
      "##5ac7ac8ac": 1096,
      "fuc2me4nac": 1097,
      "fuc2s3s": 1098,
      "gulnacan": 1099,
      "qui4nalalac": 1100,
      "all6ac": 1101,
      "galoacopyr": 1102,
      "4dery": 1103,
      "ldmanhep4petn": 1104,
      "koopetn": 1105,
      "glcosn": 1106,
      "##glyac": 1107,
      "fuc3nalaac": 1108,
      "##lyxhex": 1109,
      "##serac": 1110,
      "glc4me6me": 1111,
      "glc2me3me4me6me": 1112,
      "ldmanhep6p7cm": 1113,
      "##nmeocm": 1114,
      "6dtal2me4ac": 1115,
      "alta2s": 1116,
      "##aspac": 1117,
      "ldmanhep2ppetn": 1118,
      "sedf": 1119,
      "4eleg5ac7ac": 1120,
      "fus": 1121,
      "ldidohep": 1122,
      "##5ac7ac8ac9ac": 1123,
      "##1etn": 1124,
      "##ncm": 1125,
      "##6br": 1126,
      "##gra": 1127,
      "##xo": 1128,
      "##hxo": 1129,
      "##4cn": 1130,
      "##f3c": 1131,
      "##5nam": 1132,
      "##lcnon": 1133,
      "glc5": 1134,
      "glc2me": 1135,
      "glc3n": 1136,
      "glc3ac6ac": 1137,
      "glcalys": 1138,
      "glcnac3n": 1139,
      "man3cme": 1140,
      "fuc2n": 1141,
      "galnacoacop": 1142,
      "neu5gc9me": 1143,
      "xyl2ac3ac4ac": 1144,
      "glca2ac3ac": 1145,
      "glcaopyr": 1146,
      "ara4ac": 1147,
      "kdo2me": 1148,
      "kdo2p": 1149,
      "galf3ac": 1150,
      "fruf6ac": 1151,
      "fruf6f": 1152,
      "ido2s": 1153,
      "idoa2me3me": 1154,
      "ldmanhepopopetn": 1155,
      "idoa2s6me": 1156,
      "galnama": 1157,
      "glcn1p2pam": 1158,
      "glcn1p2ste": 1159,
      "##but7ac": 1160,
      "glcn4petn": 1161,
      "glc6acpgro": 1162,
      "glc6acopgro": 1163,
      "dig3fo": 1164,
      "manopme": 1165,
      "galnaca4ac": 1166,
      "glcnacopetn": 1167,
      "rha2ac3ac": 1168,
      "##7ac9ac": 1169,
      "##4nac5nac": 1170,
      "glcnaca3ac": 1171,
      "fuc2me4me": 1172,
      "oli3cme": 1173,
      "glc6petn": 1174,
      "gula2nac": 1175,
      "fucnfo": 1176,
      "fucnalaac": 1177,
      "fucnthrac": 1178,
      "galoacpgro": 1179,
      "galoacopgro": 1180,
      "altf": 1181,
      "glca2s3s": 1182,
      "gal2s6s": 1183,
      "6daltnac": 1184,
      "glc2me3me4me6s": 1185,
      "6darahexnac": 1186,
      "leg5ac7": 1187,
      "glc3s6et": 1188,
      "glc2et4s6et": 1189,
      "glc2et3s4s6et": 1190,
      "mann3n": 1191,
      "man2f": 1192,
      "6dmanhep2ac": 1193,
      "3dthrpen": 1194,
      "glca6thr": 1195,
      "ddgalhepome": 1196,
      "xlufome": 1197,
      "qui2me4nbut": 1198,
      "fuc2ac3me": 1199,
      "mannac1p3ac": 1200,
      "fruf1cl4": 1201,
      "fruf1cl6cl": 1202,
      "dlglc": 1203,
      "gal2et4s6et": 1204,
      "gal2et3s4s6et": 1205,
      "6dtal2ac3me4ac": 1206,
      "glca2nac4me": 1207,
      "galnaca3ac6n": 1208,
      "6dall3me": 1209,
      "glcnac1etn": 1210,
      "kdo5pgro": 1211,
      "idonac6nac": 1212,
      "xyl1n2me": 1213,
      "glcn2myr3nlau": 1214,
      "glcns6s": 1215,
      "5dlyx": 1216,
      "glcncmocm": 1217,
      "9dglcnon": 1218,
      "pse5am7gra": 1219,
      "##3gc4gc": 1220,
      "galf5pyr": 1221,
      "idon6n": 1222,
      "##lyxhexome": 1223,
      "##f3cfo": 1224,
      "dlglchep": 1225,
      "9dglcnon5nam": 1226,
      "as": 1227,
      "pau": 1228,
      "si": 1229,
      "uro": 1230,
      "##1ole": 1231,
      "##pro": 1232,
      "##ngro": 1233,
      "##n4ulo": 1234,
      "##2gc": 1235,
      "##2lau": 1236,
      "##cet": 1237,
      "##omar": 1238,
      "##5me": 1239,
      "##5am": 1240,
      "glc5s": 1241,
      "##nacnbut": 1242,
      "glcnac1gro": 1243,
      "glcnacpcho": 1244,
      "##alalys": 1245,
      "gal6": 1246,
      "gal3n": 1247,
      "gal3lac": 1248,
      "man4s": 1249,
      "neu4nac": 1250,
      "neu8me": 1251,
      "neu5fo": 1252,
      "neu5acos": 1253,
      "neu5ac8me": 1254,
      "galnac4pyr": 1255,
      "rha2": 1256,
      "rhapgro": 1257,
      "rhaopgro": 1258,
      "rha3cme": 1259,
      "neu5gcome": 1260,
      "xyl2f": 1261,
      "glca3ac": 1262,
      "glcnomar": 1263,
      "##hepglc": 1264,
      "kdo4ac": 1265,
      "ldmanhepoetn": 1266,
      "##oppetn": 1267,
      "galathr": 1268,
      "##6acnme": 1269,
      "glc1cer6aep": 1270,
      "quinacop": 1271,
      "quinac4p": 1272,
      "quinac4ac": 1273,
      "##2ach": 1274,
      "glcn2s4me6s": 1275,
      "mannacoac": 1276,
      "mannac4pyr": 1277,
      "ldmanhepopoppetn": 1278,
      "6dlyxhexome": 1279,
      "glcn1p3n": 1280,
      "##3nfo": 1281,
      "##3pcho": 1282,
      "glcnacopyr": 1283,
      "glcnacopgro": 1284,
      "##1me2s": 1285,
      "abeoac": 1286,
      "psenbut": 1287,
      "glcn2gly": 1288,
      "gal6pgro": 1289,
      "##cl6cl": 1290,
      "gal2ac3ac": 1291,
      "##3myr4p": 1292,
      "qui4nglyac": 1293,
      "##pgroa": 1294,
      "gal2s3s": 1295,
      "glcnacnama": 1296,
      "fucnac4nme": 1297,
      "##1pp2nac": 1298,
      "glc2gc": 1299,
      "glc2groa": 1300,
      "glc2br": 1301,
      "qui3nfo": 1302,
      "##dco3dco": 1303,
      "glcnacanala": 1304,
      "glcnme1pam": 1305,
      "glcn1p2lau3dco": 1306,
      "psenacngro": 1307,
      "galaoacome": 1308,
      "8elegnacnbut": 1309,
      "fucfnac": 1310,
      "glca6lys": 1311,
      "gala1prop": 1312,
      "glcgroa": 1313,
      "neu5ac9n": 1314,
      "glcnmeocm1pam": 1315,
      "glcnmeocm2vac": 1316,
      "dlhepglc": 1317,
      "man2s4s6s": 1318,
      "6dxylhexn4ulo": 1319,
      "glc2ac3ac4pgro": 1320,
      "glcn2myr3nmyr": 1321,
      "6dalthep3me": 1322,
      "glcn1p2lau3lau": 1323,
      "glcn1n2gc": 1324,
      "glcn2myr3dco4p": 1325,
      "galf1oc": 1326,
      "fus5ac": 1327,
      "fuc2nam": 1328,
      "galf3ac5ac": 1329,
      "asc": 1330,
      "pau3me": 1331,
      "sia": 1332,
      "uronic": 1333,
      "##cetlys": 1334,
      "neu4nac5ac": 1335,
      "psenbutnfo": 1336,
      "glcnme1pamocm": 1337,
      "dlhepglcome": 1338,
      "9d": 1339,
      "aco": 1340,
      "ta": 1341,
      "##a6n": 1342,
      "##1s": 1343,
      "##2ole": 1344,
      "##cf": 1345,
      "##if": 1346,
      "##4fo": 1347,
      "##acme": 1348,
      "glcoac": 1349,
      "glc4n": 1350,
      "glc3s4s6s": 1351,
      "glc4lac": 1352,
      "glcnacolac": 1353,
      "glcnac4f": 1354,
      "gal3ac4ac": 1355,
      "gal2me3me": 1356,
      "gal3ac4ac6ac": 1357,
      "gal1gro": 1358,
      "fuc4me": 1359,
      "fuc4nbut": 1360,
      "fuc1coum": 1361,
      "neu4me": 1362,
      "neu7ac9ac": 1363,
      "galnac3ac4ac6ac": 1364,
      "rhacme": 1365,
      "rha1pp": 1366,
      "rha4pgro": 1367,
      "rha1fer": 1368,
      "rhaopetn": 1369,
      "rha3pgro": 1370,
      "neu5gc7ac": 1371,
      "xyl2s": 1372,
      "xyl2ac": 1373,
      "glcaoetn": 1374,
      "glcnp": 1375,
      "glcn6me": 1376,
      "glcngly": 1377,
      "ara4s": 1378,
      "kdon": 1379,
      "kdoome": 1380,
      "kdooac": 1381,
      "kdo8ac": 1382,
      "kdo7p": 1383,
      "ldmanhep1me": 1384,
      "ldmanhepogly": 1385,
      "araf3me": 1386,
      "gala3p": 1387,
      "gala2nac3nac": 1388,
      "gala2ac3ac": 1389,
      "##3me6s": 1390,
      "##3me6me": 1391,
      "kdn5ac": 1392,
      "kdn9me": 1393,
      "##3ste": 1394,
      "fruf6p": 1395,
      "##oste": 1396,
      "rib2ac3ac4ac": 1397,
      "##4petn": 1398,
      "idoa1me2s": 1399,
      "quinac1n": 1400,
      "##2ac4ac": 1401,
      "glcn2suc": 1402,
      "##3ac6gly": 1403,
      "idoa2s6s": 1404,
      "idoa2s3s": 1405,
      "idoa2s3ac": 1406,
      "ddmanhepopgro": 1407,
      "ddmanhepobut": 1408,
      "ddmanheppgroa": 1409,
      "gal3s6et": 1410,
      "##tala": 1411,
      "glcn1pp": 1412,
      "##butala": 1413,
      "glc6ac1coum": 1414,
      "dig3ac4ac": 1415,
      "##3nbut": 1416,
      "##3nmyr": 1417,
      "mana2ac": 1418,
      "gul4nac5nac": 1419,
      "glcnac6pet": 1420,
      "glcnac6pgro": 1421,
      "ribopetn": 1422,
      "psif": 1423,
      "pse5ac": 1424,
      "man1petn": 1425,
      "glcn2but": 1426,
      "glcn2mar": 1427,
      "glcomeopyr": 1428,
      "gal3p4p": 1429,
      "gal3pcho": 1430,
      "neu4ac5ac7ac8ac9ac": 1431,
      "fucome1coum": 1432,
      "fuc2s3s4s": 1433,
      "gal2ac4pyr": 1434,
      "gal2ac3ac4ac": 1435,
      "qui4nh": 1436,
      "qui4naspac": 1437,
      "hexa2nac3nac": 1438,
      "galoacn": 1439,
      "glc3me6s": 1440,
      "glcnacnalafo": 1441,
      "gulnaca3nam": 1442,
      "gulnacaoacn": 1443,
      "gulnaca3ac6gly": 1444,
      "pse5ac7acnbut": 1445,
      "kdooppetnn": 1446,
      "4dthre": 1447,
      "glc2vac": 1448,
      "glcosnmeocm": 1449,
      "gala2nac3ac6n": 1450,
      "glcnaca3nac4ac": 1451,
      "man2but": 1452,
      "glcnac3ac4pgro": 1453,
      "man4me6me": 1454,
      "6dmanhepop": 1455,
      "aric": 1456,
      "fuc2me3me4n": 1457,
      "mana2nac3nam": 1458,
      "xluf1me": 1459,
      "glc2s3s4me6s": 1460,
      "gal2pcho": 1461,
      "neu5ac9me": 1462,
      "6dgalhep": 1463,
      "glcn3n4pp": 1464,
      "glcn3n4ppetn": 1465,
      "glcn1p2myr3dco": 1466,
      "glcn1p2myr3lau": 1467,
      "galnac1p3ac": 1468,
      "allnac6me": 1469,
      "xyl2me4me": 1470,
      "gala2nfo": 1471,
      "rhanfo": 1472,
      "legnacnbut": 1473,
      "legnacnam": 1474,
      "xyl1n4me": 1475,
      "glcn1ppetn2myr3myr": 1476,
      "galf6pgro": 1477,
      "glc1coum6ac": 1478,
      "glcopetnn": 1479,
      "glcn2ala3ac": 1480,
      "glcn2lau3lau4p": 1481,
      "gula2nac3nam": 1482,
      "ldmanhep2ppetn4p": 1483,
      "glc5cf": 1484,
      "glcn1p2ste3ste": 1485,
      "leg5ac7but": 1486,
      "5dlyxf3cfo": 1487,
      "rha2cl": 1488,
      "##3nfoa6n": 1489,
      "gal2ac3ac4pyr": 1490,
      "glc2groa6ac": 1491,
      "aconac": 1492,
      "tag": 1493,
      "fuc1coumome": 1494,
      "neu4me5ac": 1495,
      "ldmanhep1me4p": 1496,
      "ddmanhepopgroa": 1497,
      "ac": 1498,
      "dd": 1499,
      "vi": 1500,
      "yero": 1501,
      "##lin": 1502,
      "##1cl": 1503,
      "##pa": 1504,
      "##pp": 1505,
      "##pam": 1506,
      "##ngroa": 1507,
      "##2but": 1508,
      "##cys": 1509,
      "##mal": 1510,
      "##onac": 1511,
      "##ofo": 1512,
      "##i5ac7ac": 1513,
      "##i6cl": 1514,
      "##glu": 1515,
      "##hpa": 1516,
      "##dhpa": 1517,
      "##4cm": 1518,
      "##4dhpa": 1519,
      "##s3s4s6s": 1520,
      "##fru": 1521,
      "##5but7ac": 1522,
      "##3cm": 1523,
      "##7nac": 1524,
      "##7am": 1525,
      "##8n": 1526,
      "##8ala": 1527,
      "##lchep": 1528,
      "glcocm": 1529,
      "glcobz": 1530,
      "glc6f": 1531,
      "glc3gc4gc": 1532,
      "glcnac6n": 1533,
      "##alnon": 1534,
      "gal4n": 1535,
      "gal4pgro": 1536,
      "gal6nac": 1537,
      "gal1etn": 1538,
      "man1n": 1539,
      "man3s4s6s": 1540,
      "man1cer": 1541,
      "man2n": 1542,
      "man6f": 1543,
      "fuc1gro": 1544,
      "neu5pp": 1545,
      "neu5ac8ac": 1546,
      "galnac4ac": 1547,
      "galnacgro": 1548,
      "galnac4me": 1549,
      "rha1n": 1550,
      "rha3p": 1551,
      "rha1me": 1552,
      "xyl1p": 1553,
      "xyl1cer": 1554,
      "##men": 1555,
      "glcaop": 1556,
      "glca2ac": 1557,
      "glca3nac": 1558,
      "glca1cer": 1559,
      "glca1pp": 1560,
      "glcngc": 1561,
      "glcnam": 1562,
      "glcnocm": 1563,
      "glcn2ach": 1564,
      "ara3ac": 1565,
      "ara3ac4ac": 1566,
      "ara1pp": 1567,
      "araoacop": 1568,
      "kdo5s": 1569,
      "galfpgro": 1570,
      "galfopgro": 1571,
      "arafome": 1572,
      "araf1me": 1573,
      "araf2ac3ac": 1574,
      "##2s3s6s": 1575,
      "##2s3s4s": 1576,
      "galaopetn": 1577,
      "galaalalys": 1578,
      "qui2n": 1579,
      "qui4cn": 1580,
      "kdn9ac": 1581,
      "kdn8me": 1582,
      "fruf6n": 1583,
      "fruf6nac": 1584,
      "fruf4f": 1585,
      "fruf6i": 1586,
      "fruf6br": 1587,
      "glc1nac": 1588,
      "glc1et": 1589,
      "glc1etn": 1590,
      "glc1lin": 1591,
      "##6acncm": 1592,
      "##4ppetn": 1593,
      "##1prop": 1594,
      "idoa3s": 1595,
      "quinacome": 1596,
      "##4ac5ac7ac": 1597,
      "##4ac5ac7ac8ac9ac": 1598,
      "hexnacopetn": 1599,
      "mannac4pgro": 1600,
      "mannacopyr": 1601,
      "##oach": 1602,
      "##oacocm": 1603,
      "##4nfo": 1604,
      "6dfru": 1605,
      "##4me6n": 1606,
      "##4me6cl": 1607,
      "ribf3ac": 1608,
      "ribf5p": 1609,
      "##but7fo": 1610,
      "glc2s4s": 1611,
      "glc2s3me6s": 1612,
      "glc6acnmeocm": 1613,
      "glc6acncm": 1614,
      "dig4me": 1615,
      "manopome": 1616,
      "mannaca4me6n": 1617,
      "##3pp": 1618,
      "##3ac4ac6br": 1619,
      "rha2ac3me": 1620,
      "glcn2gc": 1621,
      "glcn2alaac": 1622,
      "gal4s6s": 1623,
      "glc2ac4ac6ac": 1624,
      "glc2ac4pgro": 1625,
      "##3s4s6p": 1626,
      "glcnacaoac": 1627,
      "glcnaca6gly": 1628,
      "glcnaca6ala": 1629,
      "apifome": 1630,
      "ribf1n2p": 1631,
      "##araf": 1632,
      "neu4ac5ac9ac": 1633,
      "galoacnfo": 1634,
      "glcnacoacocm": 1635,
      "murnacala": 1636,
      "murnac8ala": 1637,
      "glcnacnala": 1638,
      "gulnacaoac": 1639,
      "gulnaca6gly": 1640,
      "leg5am": 1641,
      "fruf1s3s4s6s": 1642,
      "man2ac6ac": 1643,
      "glc1pp": 1644,
      "glc1p2lau": 1645,
      "fucoacngroa": 1646,
      "glcnme2vac": 1647,
      "gala6thr": 1648,
      "gala6cetlys": 1649,
      "glcn1p2mar": 1650,
      "glc3ac4pgro": 1651,
      "man2oco": 1652,
      "man2cl6cl": 1653,
      "mannaca3nac6ala": 1654,
      "glcnac6i": 1655,
      "galaoacnam": 1656,
      "fuc2me3me4ac": 1657,
      "ddglchep": 1658,
      "neu5ac7ac8ac": 1659,
      "glca6ala": 1660,
      "glcn2me3p": 1661,
      "glcn2me2ole": 1662,
      "fucnam3ac": 1663,
      "gal2pyr": 1664,
      "glcnmeocmoste": 1665,
      "mannac1p4ac": 1666,
      "mannac1p3ac4ac": 1667,
      "fruf1cl4f": 1668,
      "fruf1cl4cl6cl": 1669,
      "fruf1cl4me6cl": 1670,
      "glca6ser": 1671,
      "hepop": 1672,
      "galnac1pgro": 1673,
      "1dalt": 1674,
      "fuc3nbut4ac": 1675,
      "##br6cl": 1676,
      "man2s3s4s6p": 1677,
      "6daltfoac": 1678,
      "rhanpro": 1679,
      "gala2s3s": 1680,
      "pse5but7ac": 1681,
      "pse5but7fo": 1682,
      "6dallome": 1683,
      "fruf1ac4ac": 1684,
      "neu1me4ac5ac7ac8ac9ac": 1685,
      "gal1pgro2ac3ac": 1686,
      "sorf1cl": 1687,
      "##5nac7nac": 1688,
      "glcn2vac6ac": 1689,
      "glcns3s6s": 1690,
      "6dtalnac4ac": 1691,
      "5daraf": 1692,
      "glcncm1vac": 1693,
      "glcn1ppetn2myr": 1694,
      "9dgalnon": 1695,
      "glcnaca3nbut": 1696,
      "##althep": 1697,
      "glcn2myr3lau4ppetn": 1698,
      "##oacn4en": 1699,
      "4deryhex": 1700,
      "kdo2pgro": 1701,
      "glcn1p2pam3myr": 1702,
      "oli3cme4ac": 1703,
      "altfoac": 1704,
      "fruf1cl4i6cl": 1705,
      "fruf1cl4br6cl": 1706,
      "dlglchep3me6me": 1707,
      "9dglcnon5nam7ac": 1708,
      "9dglcnon5nam7am": 1709,
      "gal6ulo": 1710,
      "kdo4ac5s": 1711,
      "glc2gc3gc4gc": 1712,
      "glc2br3ac4ac6br": 1713,
      "ddalthep": 1714,
      "vionac": 1715,
      "yeroac": 1716,
      "araf2ac3ac5ac": 1717,
      "mannac4pgroa": 1718,
      "6dfruf": 1719,
      "leg5am7ac": 1720,
      "fruf1cl4f6cl": 1721,
      "sorf1cl4cl6cl": 1722,
      "9dgalnon5nac7nac": 1723,
      "0d": 1724,
      "3dmanhep": 1725,
      "7lac": 1726,
      "a4": 1727,
      "a3": 1728,
      "b4": 1729,
      "dhex": 1730,
      "per": 1731,
      "suc": 1732,
      "##p3": 1733,
      "##pyr": 1734,
      "##p3pp": 1735,
      "##neu": 1736,
      "##nocm": 1737,
      "##2groa": 1738,
      "##6cm": 1739,
      "##6gron": 1740,
      "##6lys": 1741,
      "##oor": 1742,
      "##omal": 1743,
      "##e5ac": 1744,
      "##ios": 1745,
      "##h6ac": 1746,
      "##ton": 1747,
      "##4ala": 1748,
      "##se": 1749,
      "##suc": 1750,
      "##f3cme": 1751,
      "##3ala": 1752,
      "##win": 1753,
      "##ac6n": 1754,
      "glc3ac4ac": 1755,
      "glc2nac3nac": 1756,
      "glc4pgro": 1757,
      "glc3pgro": 1758,
      "glc3gc": 1759,
      "glcomal": 1760,
      "##nac4nac": 1761,
      "##naca4en": 1762,
      "glcnac4n": 1763,
      "glcnacala": 1764,
      "glcnac3ac4ac": 1765,
      "glcnac3s4s6s": 1766,
      "glcnac1cer": 1767,
      "glcnac1vac": 1768,
      "glcnac2ala": 1769,
      "glcnac4dhpa": 1770,
      "glcnac2groa": 1771,
      "gal3nac": 1772,
      "gal3ac6ac": 1773,
      "galanam": 1774,
      "gal2n": 1775,
      "gal5nac": 1776,
      "galpcho": 1777,
      "gal4nac5nac": 1778,
      "gal1s": 1779,
      "man3s6s": 1780,
      "man5p": 1781,
      "manoetn": 1782,
      "man3fo": 1783,
      "fuc1n": 1784,
      "fuc1vac": 1785,
      "fucobut": 1786,
      "fuc1pam": 1787,
      "fuc4cn": 1788,
      "neu1": 1789,
      "neu2p": 1790,
      "neu4gc": 1791,
      "neu5acome": 1792,
      "galnacoac": 1793,
      "galnac1n": 1794,
      "galnac3p": 1795,
      "galnac6aep": 1796,
      "galnac4ac6ac": 1797,
      "galnac4pgro": 1798,
      "galnac1etn": 1799,
      "galnac4petn": 1800,
      "rha1": 1801,
      "rha3lac": 1802,
      "xyl1me": 1803,
      "xyl2me3me": 1804,
      "##me3lac": 1805,
      "glca1p": 1806,
      "glcagro": 1807,
      "glca6n": 1808,
      "glca3fo": 1809,
      "glcaalalys": 1810,
      "glcaglu": 1811,
      "glcnop": 1812,
      "glcn4ac": 1813,
      "glcnoac": 1814,
      "glcn6n": 1815,
      "glcnopetn": 1816,
      "ara2s": 1817,
      "araoac": 1818,
      "ara2me": 1819,
      "ara3n": 1820,
      "ara1me": 1821,
      "kdo1n": 1822,
      "kdo7ac": 1823,
      "ldmanhep2ac": 1824,
      "ldmanhepgly": 1825,
      "galfgro": 1826,
      "galf1me": 1827,
      "galf3lac": 1828,
      "araf3s": 1829,
      "araf1p": 1830,
      "gala3ac4ac": 1831,
      "galaolac": 1832,
      "gala4petn": 1833,
      "galap3": 1834,
      "qui3ac4ac": 1835,
      "qui2f": 1836,
      "hexn": 1837,
      "hexf": 1838,
      "hexos": 1839,
      "kdn1n": 1840,
      "fruf3ac": 1841,
      "##6pcho": 1842,
      "glc1petn": 1843,
      "glc1be": 1844,
      "glc1oco": 1845,
      "glc1hxo": 1846,
      "riboac": 1847,
      "rib2ala": 1848,
      "##4p6ac": 1849,
      "fucnac1prop": 1850,
      "idoa2ac3ac": 1851,
      "quinac4me": 1852,
      "quinac1gro": 1853,
      "quinacobut": 1854,
      "##4ac6n": 1855,
      "##4ac5ac7": 1856,
      "mannac6ac": 1857,
      "mannac1me": 1858,
      "mannac4ac6ac": 1859,
      "mannac4lac": 1860,
      "##oacobz": 1861,
      "##3ac5ac6ac": 1862,
      "##4nalaac": 1863,
      "gal3me4cl6cl": 1864,
      "ldmanhepopome": 1865,
      "ribf2ac": 1866,
      "ribfoac": 1867,
      "ribf5ac": 1868,
      "ddmanhep7p": 1869,
      "6dtalf": 1870,
      "##cho6p": 1871,
      "##1n2ac4ac": 1872,
      "galnoac": 1873,
      "galn6petn": 1874,
      "##foala": 1875,
      "glcn1p2ach": 1876,
      "glcn4pp": 1877,
      "glcn4p6ac": 1878,
      "glcn4ppetn": 1879,
      "glc6acop": 1880,
      "glc6acgro": 1881,
      "glc6acnme": 1882,
      "dig4ac": 1883,
      "dig3cme": 1884,
      "manopopyr": 1885,
      "##3npam": 1886,
      "rha4nlac": 1887,
      "mana1pp": 1888,
      "mana2ac3ac": 1889,
      "mana1pp2nac": 1890,
      "mannacaoac": 1891,
      "mannacaala": 1892,
      "mannaca1gro": 1893,
      "mannaca6thr": 1894,
      "guln": 1895,
      "gulan": 1896,
      "galnacaala": 1897,
      "galnacaser": 1898,
      "##3p6ac": 1899,
      "glcnacopoach": 1900,
      "riboppgro": 1901,
      "rha2ac3pcho": 1902,
      "##2p5ac7ac": 1903,
      "pse4ac5ac7": 1904,
      "glcop1ole": 1905,
      "rhaomec": 1906,
      "glcn2dco": 1907,
      "glcn2dco3dco": 1908,
      "rhanacoac": 1909,
      "glc2ac3s": 1910,
      "glc2ac3ac4ac": 1911,
      "fuc2me3s": 1912,
      "dig3me4me": 1913,
      "glcomen": 1914,
      "oli3n": 1915,
      "oli1me": 1916,
      "quinthrac": 1917,
      "quinglyac": 1918,
      "quinaspac": 1919,
      "quinbutala": 1920,
      "quinme3lac": 1921,
      "glcnac1pam": 1922,
      "neu4ac9ac": 1923,
      "neu4ac7ac9ac": 1924,
      "gala2nac4ac": 1925,
      "gala2nac6me": 1926,
      "fucome1vac": 1927,
      "fucome1pam": 1928,
      "tyv2me": 1929,
      "rhaoacome": 1930,
      "##thralt": 1931,
      "gula2s": 1932,
      "gula2n": 1933,
      "apif2ac": 1934,
      "glca3s6me": 1935,
      "ribf1n5p": 1936,
      "gulnac3ac": 1937,
      "gulnac1n": 1938,
      "gal2ac4ac": 1939,
      "fucnasp": 1940,
      "fucnmen": 1941,
      "qui3nac4me": 1942,
      "qui4nme": 1943,
      "qui4nserac": 1944,
      "qui4nbutala": 1945,
      "allome": 1946,
      "all3ac": 1947,
      "galoacop": 1948,
      "galoacnala": 1949,
      "murn": 1950,
      "glcn2myr4p": 1951,
      "glcn2myr3lau": 1952,
      "alt3s": 1953,
      "alt3s4s": 1954,
      "glcnacoacolac": 1955,
      "4dlyxhep": 1956,
      "murnac6ac": 1957,
      "murnac1me": 1958,
      "ldmanhep4pogly": 1959,
      "koome": 1960,
      "glc2me3me5me": 1961,
      "gal4me6me": 1962,
      "leg5ac": 1963,
      "leg4ac5ac7ac": 1964,
      "galomef": 1965,
      "galomenala": 1966,
      "6dtal2ac3ac": 1967,
      "gal2me6me": 1968,
      "galf2ac3ac5ac6ac": 1969,
      "glc1p6ac": 1970,
      "glc2lau3dco4p": 1971,
      "lyxf": 1972,
      "lyx2me": 1973,
      "talnac": 1974,
      "4dthrhexoacn4en": 1975,
      "4dthrhexnaca4en": 1976,
      "qui3nalaac": 1977,
      "qui3nthrac": 1978,
      "qui3nserac": 1979,
      "glc2pgro": 1980,
      "glc2pam": 1981,
      "glc2pp3pp": 1982,
      "glc2p3p6ac": 1983,
      "fucoacnam": 1984,
      "glcnacanalaac": 1985,
      "##alaac4nalaac": 1986,
      "glcnaca3nac6n": 1987,
      "glcn1p2dco3dco": 1988,
      "bac1pp": 1989,
      "bac1n2ac4ac": 1990,
      "erwin": 1991,
      "man2br": 1992,
      "psenacobut": 1993,
      "##obz1coum": 1994,
      "eryome": 1995,
      "fuc3nfo": 1996,
      "glcnac6nac": 1997,
      "glcnac6cl": 1998,
      "galaoacthr": 1999,
      "##te6ac": 2000,
      "man1ser": 2001,
      "##5ac7pyr": 2002,
      "8eleg5but7ac": 2003,
      "glc6pgroa": 2004,
      "glc6pgroac": 2005,
      "man2me4n": 2006,
      "man2me6me": 2007,
      "glcn2pam4p": 2008,
      "glcn2pam3nmyr": 2009,
      "##serbut": 2010,
      "fucf2ac": 2011,
      "rib1p2ala": 2012,
      "3dxylhex": 2013,
      "neu1n5gc": 2014,
      "##3cn": 2015,
      "glca6etn": 2016,
      "glca6gly": 2017,
      "glca6thrac": 2018,
      "glca6cetlys": 2019,
      "glca2nac3nac6n": 2020,
      "sug2ac": 2021,
      "sug2ac3ac": 2022,
      "sug5ac7pyr": 2023,
      "gala1p6n": 2024,
      "xluf3me": 2025,
      "glcnac4pcho6p": 2026,
      "glc2s3s5s": 2027,
      "fucnam1me": 2028,
      "rhagroa": 2029,
      "glc1ngc": 2030,
      "glc1n4me": 2031,
      "glc1me2s3s6s": 2032,
      "glc1groa": 2033,
      "man3pgro": 2034,
      "qui2me4nac": 2035,
      "frufobzoc": 2036,
      "8eleg5ac7ac8ac": 2037,
      "mana2nac6p": 2038,
      "rha2me3me4me": 2039,
      "man1s2ac3ac4ac": 2040,
      "galnac3ac4pgro": 2041,
      "glcopn1pam": 2042,
      "3dlyxhep2me": 2043,
      "galnfoa6n": 2044,
      "glc4ac6pcho": 2045,
      "glcnac1me6s": 2046,
      "rha1prop": 2047,
      "glca2me4me": 2048,
      "kdo4ppetn8n": 2049,
      "ldmanhep6ppetn": 2050,
      "galfoacgro": 2051,
      "galfoacolac": 2052,
      "glcn2myr3myr4ppetn": 2053,
      "glc1pamopn": 2054,
      "man2s6s": 2055,
      "man2s3s6s": 2056,
      "glcn2ste3myr": 2057,
      "glcan2but": 2058,
      "glcnac4me6me": 2059,
      "legnacnala": 2060,
      "6dgulhepome": 2061,
      "glcnac4lac6ac": 2062,
      "gal3cl6cl": 2063,
      "6dhexnac4nac": 2064,
      "glc2ac3ac5ac6ac": 2065,
      "rha2me4nfo": 2066,
      "glcn2pam3myr4p": 2067,
      "glcnac1ole": 2068,
      "glcnac1ser": 2069,
      "fuc4nme": 2070,
      "idonac1n": 2071,
      "mannaca3nam6thr": 2072,
      "alta2n": 2073,
      "galnac3pgroan": 2074,
      "mannacanoor": 2075,
      "2dthrpen": 2076,
      "glcns3s": 2077,
      "frufoacobz1coum": 2078,
      "6dtalnacoac": 2079,
      "6dalthepf": 2080,
      "fruf1coumoacobz": 2081,
      "rha1gro3petn": 2082,
      "kdo8petn": 2083,
      "galancys": 2084,
      "ara2ac4ac": 2085,
      "quinacnalaac": 2086,
      "glcopchogro": 2087,
      "glcnaca3nsuc": 2088,
      "glcnaca3nfoala": 2089,
      "pse5am7gc": 2090,
      "gala2ac4fo": 2091,
      "glcn2lau4p": 2092,
      "glcn2lau3myr4p": 2093,
      "oli3me4ac": 2094,
      "kdo8pp": 2095,
      "glc4petn": 2096,
      "rha2s3s4s": 2097,
      "glc1ste6ac": 2098,
      "##3pam4p": 2099,
      "gulnacanetn": 2100,
      "fus5am": 2101,
      "ldidoheppro": 2102,
      "glc5n": 2103,
      "glc2me4me": 2104,
      "glcnac3n4ac6n": 2105,
      "dig3fo4fo": 2106,
      "gula2nac3et": 2107,
      "6daltnac1pp": 2108,
      "6daltnac3pcho": 2109,
      "leg5ac7ala": 2110,
      "5dlyxf3cme": 2111,
      "dlglchepome": 2112,
      "gal6lac": 2113,
      "glcn2myr3nmyr4ppetn": 2114,
      "pau3me7": 2115,
      "9dneu": 2116,
      "9dthralt": 2117,
      "glcnacolacala": 2118,
      "gal2me3me4me": 2119,
      "glcnprop": 2120,
      "glcnp3nfoa6n": 2121,
      "gala2nac3nac6n": 2122,
      "glcn1pp2myr3myr": 2123,
      "glcnac6petg": 2124,
      "glcnac6petnac": 2125,
      "glcn2but3nfoa6n": 2126,
      "gal3pcho6petn": 2127,
      "qui4nhserac": 2128,
      "qui4nhserbut": 2129,
      "glc2vac6acnme": 2130,
      "tagf": 2131,
      "neu4me5ac9me": 2132,
      "aci5ac7ac": 2133,
      "##3cm4cm": 2134,
      "glcocm6acnme": 2135,
      "glcnocm1vac": 2136,
      "glcn2ach3myr4p": 2137,
      "qui2nalaac4nalaac": 2138,
      "glc1lin6ac": 2139,
      "galoacnfoa": 2140,
      "glcn1p2mar3pam": 2141,
      "man2oco3": 2142,
      "gala2s3s6me": 2143,
      "5daraf3me": 2144,
      "glcn1ppetn2myr3lau": 2145,
      "4deryhexan4en": 2146,
      "0dhex": 2147,
      "7lacton": 2148,
      "pernac": 2149,
      "##iose": 2150,
      "##3ala4ala": 2151,
      "glcnac2groa6p": 2152,
      "galanam3ac": 2153,
      "fuc1vacome": 2154,
      "fuc1pamome": 2155,
      "neu4gc5ac": 2156,
      "glca3fo4me": 2157,
      "ara2s4s": 2158,
      "gala3ac4ac6gron": 2159,
      "gala4petn6lys": 2160,
      "glc1beh6ac": 2161,
      "rib2ala5p": 2162,
      "fucnac1prop4n": 2163,
      "ddmanhep7pcho": 2164,
      "glcn1p2ach3myr": 2165,
      "glc6acnme2vac": 2166,
      "mannaca1gro3nac": 2167,
      "pse4ac5ac7but": 2168,
      "glc2me3me5me6me": 2169,
      "glc2pp3pp6ac": 2170,
      "erwiniose": 2171,
      "rib1p2ala3ala4ala": 2172,
      "3dxylhexome": 2173,
      "glc2s3s5s6s": 2174,
      "frufobzocin": 2175,
      "glcan2but3nbut": 2176,
      "mannacanoorn": 2177,
      "2dthrpen4n": 2178,
      "glcnaca3nsucac6n": 2179,
      "glcnaca3nfoala6n": 2180,
      "9dneu5ac": 2181,
      "9dthraltnon": 2182,
      "7lactone5ac": 2183,
      "7d": 2184,
      "8e": 2185,
      "8ep": 2186,
      "ga": 2187,
      "tala": 2188,
      "##1et": 2189,
      "##prop": 2190,
      "##2et": 2191,
      "##2gro": 2192,
      "##2petn": 2193,
      "##2nbut": 2194,
      "##2gly": 2195,
      "##2lau3dco": 2196,
      "##2dco3dco": 2197,
      "##6lau": 2198,
      "##6ulo": 2199,
      "##6oco": 2200,
      "##6hxo": 2201,
      "##ef": 2202,
      "##bn": 2203,
      "##4bz": 2204,
      "##4oco": 2205,
      "##4hxo": 2206,
      "##f4nfo": 2207,
      "##vl": 2208,
      "##5fo": 2209,
      "##5cn": 2210,
      "##3f": 2211,
      "##7me": 2212,
      "##7et": 2213,
      "##8p": 2214,
      "##aci5ac7ac": 2215,
      "##lcnac": 2216,
      "glccho": 2217,
      "glc3nac": 2218,
      "glcthr": 2219,
      "glc3petn": 2220,
      "glc4s6s": 2221,
      "glcoetn": 2222,
      "glc5nac": 2223,
      "glc6thr": 2224,
      "glcogly": 2225,
      "glc6ulo": 2226,
      "glc3f": 2227,
      "glcnac4ac": 2228,
      "glcnacgly": 2229,
      "glcnacglu": 2230,
      "gal4nac": 2231,
      "galgron": 2232,
      "galofo": 2233,
      "gal3cn": 2234,
      "gal1et": 2235,
      "man6n": 2236,
      "man3et": 2237,
      "man4cn": 2238,
      "man4dhpa": 2239,
      "man3cn": 2240,
      "fucop": 2241,
      "fuc1cer": 2242,
      "fuc1pp": 2243,
      "fuc1fer": 2244,
      "fucoetn": 2245,
      "neu5ac6ac": 2246,
      "galnacn": 2247,
      "galnac1me": 2248,
      "galnac3pcho": 2249,
      "rhaf": 2250,
      "rha3n": 2251,
      "rha2p": 2252,
      "rhaopyr": 2253,
      "rha3pyr": 2254,
      "rha1etn": 2255,
      "neu5gcoac": 2256,
      "neu5gcolac": 2257,
      "xyloac": 2258,
      "xyl4n": 2259,
      "xyl1pp": 2260,
      "xylobz": 2261,
      "##meome": 2262,
      "##meofo": 2263,
      "glcaoac": 2264,
      "glca3n": 2265,
      "glca1me": 2266,
      "glca1gro": 2267,
      "glcaobut": 2268,
      "glca1pp2nac": 2269,
      "glcn2ac": 2270,
      "glcn2me3me": 2271,
      "glcn1vac": 2272,
      "glcnopyr": 2273,
      "glcn3lau4p": 2274,
      "glcn1me2s": 2275,
      "glcn1s": 2276,
      "ara3me": 2277,
      "ara1n": 2278,
      "ara2p": 2279,
      "ara1cer": 2280,
      "ara2ac3ac": 2281,
      "ara1pp2nac": 2282,
      "kdo5me": 2283,
      "kdo7me": 2284,
      "ldmanhepome": 2285,
      "ldmanhep3p": 2286,
      "ldmanhepgron": 2287,
      "ldmanheppgroa": 2288,
      "ldmanhep2gly": 2289,
      "galfop": 2290,
      "galf1p": 2291,
      "galf4pyr": 2292,
      "galf3ac6ac": 2293,
      "galf1cer": 2294,
      "galf1pp": 2295,
      "galfopcho": 2296,
      "galfpcho": 2297,
      "arafn": 2298,
      "araf2me": 2299,
      "arafgro": 2300,
      "araf1pp": 2301,
      "araf1gro": 2302,
      "araf1coum": 2303,
      "##2s4s6s": 2304,
      "##2s3me6s": 2305,
      "##2s3nbut": 2306,
      "gala4me": 2307,
      "gala1me": 2308,
      "gala1pp": 2309,
      "galaopyr": 2310,
      "gala1pp2nac": 2311,
      "quinh": 2312,
      "quins": 2313,
      "qui1cer": 2314,
      "qui2nbut": 2315,
      "qui2s3nbut": 2316,
      "hexoac": 2317,
      "kdnnac": 2318,
      "kdn2p": 2319,
      "kdn7p": 2320,
      "##etg": 2321,
      "fruf6me": 2322,
      "frufol": 2323,
      "fruf6lau": 2324,
      "glc1f": 2325,
      "##erac": 2326,
      "##osome": 2327,
      "##osin": 2328,
      "rib2ac": 2329,
      "rib4ac": 2330,
      "rib3ac": 2331,
      "rib1n": 2332,
      "ribpgro": 2333,
      "riboacop": 2334,
      "##6acnocm": 2335,
      "glc1cer6s": 2336,
      "glc1cer3s": 2337,
      "##4pp": 2338,
      "##4pcho": 2339,
      "fucnaca": 2340,
      "fucnacop": 2341,
      "fucnacome": 2342,
      "fucnac3ac": 2343,
      "fucnacpgro": 2344,
      "fucnac1pp": 2345,
      "fucnacopetn": 2346,
      "idoaos": 2347,
      "idoa1pp": 2348,
      "quinacgro": 2349,
      "quinac3nac": 2350,
      "quinac3ac4ac": 2351,
      "quinac1me": 2352,
      "quinacnam": 2353,
      "quinac2ac4ac": 2354,
      "##2ac3ac6ac": 2355,
      "##4ac6me": 2356,
      "mannacome": 2357,
      "mannac4p": 2358,
      "mannac4ac": 2359,
      "mannac3ac": 2360,
      "mannac1n": 2361,
      "mannacpgro": 2362,
      "mannac1pp": 2363,
      "mannacopgro": 2364,
      "mannacgroa": 2365,
      "##oacnbut": 2366,
      "##3ac6n": 2367,
      "##4nbz": 2368,
      "gal3me6s": 2369,
      "gal3me4s": 2370,
      "ldmanhepopgroa": 2371,
      "6didohep": 2372,
      "idoa2s4me": 2373,
      "ddmanhepome": 2374,
      "ddmanhepoac": 2375,
      "ddmanhep3p": 2376,
      "ddmanhep2petn": 2377,
      "gal3s4s6s": 2378,
      "6dtalhep": 2379,
      "6dtal1pp": 2380,
      "galn1p": 2381,
      "galn2ac": 2382,
      "galn6me": 2383,
      "galn1pp": 2384,
      "galnpcho": 2385,
      "galncys": 2386,
      "glcn1plau3dco": 2387,
      "##butgro": 2388,
      "glc2ste": 2389,
      "glc6acnbut": 2390,
      "glc6acgroa": 2391,
      "glc6acnocm": 2392,
      "digoac": 2393,
      "mannacaser": 2394,
      "gul1pp": 2395,
      "galnaca3me": 2396,
      "galnaca3myr": 2397,
      "galnaca6ala": 2398,
      "glcnac1n6me": 2399,
      "glcnac1n3n": 2400,
      "glcnac1n6n": 2401,
      "glcnac1n5cn": 2402,
      "##myr3myr4p": 2403,
      "##3p4p6ac": 2404,
      "glcnacopgroa": 2405,
      "glcnacopetg": 2406,
      "glcnac6pyr": 2407,
      "xylf2me3me": 2408,
      "ribopgro": 2409,
      "kdoopoetn": 2410,
      "rha2ac3lac": 2411,
      "##5pp": 2412,
      "abe1pp": 2413,
      "pse4ac5ac7ac": 2414,
      "pse2p5ac7ac": 2415,
      "pse2gro": 2416,
      "glcoppetn": 2417,
      "man1pp": 2418,
      "man1prop": 2419,
      "rib5pp": 2420,
      "rhanac2me3me": 2421,
      "rhanacnbut": 2422,
      "rhanac3nfo": 2423,
      "glc2ac6s": 2424,
      "glc2ac6ac": 2425,
      "ins3petn": 2426,
      "rha2me4bz": 2427,
      "glcnacaome": 2428,
      "glcnaca3s": 2429,
      "glcnacaala": 2430,
      "glcnaca3nam": 2431,
      "oli3c": 2432,
      "quinlac": 2433,
      "quinmal": 2434,
      "gal6pyr": 2435,
      "glcnac1p4pcho": 2436,
      "neu4ac5ac7ac": 2437,
      "fucome1fer": 2438,
      "fucomeosin": 2439,
      "apiome": 2440,
      "apioac": 2441,
      "tyv1pp": 2442,
      "rhaoacolac": 2443,
      "##thrhex": 2444,
      "apifoac": 2445,
      "apif1pp": 2446,
      "galnacopetn": 2447,
      "fucnala": 2448,
      "fucnprop": 2449,
      "##arahep": 2450,
      "##3myr3p": 2451,
      "qui4nalaac": 2452,
      "col1pp": 2453,
      "neu4ac5ac6ac": 2454,
      "hexomeofo": 2455,
      "all1s": 2456,
      "all2s3s4s": 2457,
      "galoacome": 2458,
      "glcn2myr3pam4p": 2459,
      "##lau3lau4p": 2460,
      "altan": 2461,
      "alt1me": 2462,
      "alt2s3s4s": 2463,
      "glcnacoacos": 2464,
      "glcnacoac1vac": 2465,
      "glcnacoacnala": 2466,
      "4dxylhex": 2467,
      "4dlyxhex": 2468,
      "4dlyxhexome": 2469,
      "murnacop": 2470,
      "murnac1pp": 2471,
      "murnacser": 2472,
      "glca2s3ac": 2473,
      "ldmanhep4p6p": 2474,
      "ldmanhep4p6gly": 2475,
      "ko2me": 2476,
      "6dtaloacoac": 2477,
      "manoacn": 2478,
      "manoacome": 2479,
      "manoacopyr": 2480,
      "6darahexn": 2481,
      "kdo4p8p": 2482,
      "gulnacaoetn": 2483,
      "legnfo": 2484,
      "leg5but7ac": 2485,
      "leg2p5ac7ac": 2486,
      "leg5fo": 2487,
      "fruf1fer": 2488,
      "man2ac3ac4ac": 2489,
      "man2ac3ac4ac6ac": 2490,
      "man2ac4ac6ac": 2491,
      "penome": 2492,
      "pse5ac7acobut": 2493,
      "6dtal2ac3ac4ac": 2494,
      "par1pp": 2495,
      "glc1p2myr3myr": 2496,
      "glc1p2lau3dco": 2497,
      "galnac6pgro": 2498,
      "glc2ole": 2499,
      "glc2lau3dco": 2500,
      "glc2oco": 2501,
      "glc2hxo": 2502,
      "glc2myr3myr4p": 2503,
      "glc2lau3lau4p": 2504,
      "glcosin": 2505,
      "lyx2n": 2506,
      "lyxf3cfo": 2507,
      "tal6p": 2508,
      "tal5nac": 2509,
      "glcn3nmyr": 2510,
      "4dthrhex4en": 2511,
      "gal1cer3s": 2512,
      "gal1cer6aep": 2513,
      "fucoacobut": 2514,
      "fucoacosome": 2515,
      "##dco3myr": 2516,
      "glcnmeoste": 2517,
      "gala6thrac": 2518,
      "glcn1p2dco3myr": 2519,
      "mann1n": 2520,
      "mannpgro": 2521,
      "mannopgro": 2522,
      "mann2but": 2523,
      "man2et": 2524,
      "psenacnam": 2525,
      "psenacoacnbut": 2526,
      "rha3petn4ac": 2527,
      "mannaca3nac6n": 2528,
      "ery4ac": 2529,
      "glcnac3ac4pyr": 2530,
      "fuc3nme": 2531,
      "fuc3nlac": 2532,
      "fuc3ngly": 2533,
      "6dmanhep1p": 2534,
      "6dmanhepoac": 2535,
      "6dmanhep3ac": 2536,
      "galaoacolac": 2537,
      "galaoacgron": 2538,
      "##lyxoc": 2539,
      "##te2myr": 2540,
      "man1et": 2541,
      "man2pme": 2542,
      "4dthrhexa4enala": 2543,
      "4dthrhexa4en6n": 2544,
      "glcn2pam6ac": 2545,
      "aranmeome": 2546,
      "fucfoac": 2547,
      "3dthrhex": 2548,
      "3darahep": 2549,
      "fuc3me4me": 2550,
      "glca2nac3nac4ac": 2551,
      "glcn2me3cm4cm": 2552,
      "sugf": 2553,
      "sugoac": 2554,
      "sug2ac3ac4ac": 2555,
      "gala3me4ac6me": 2556,
      "penfome": 2557,
      "gal4p6p": 2558,
      "glc1me2s3me6s": 2559,
      "glc1gro6petn": 2560,
      "man1me4me": 2561,
      "man1me2s3s6s": 2562,
      "man1me2et": 2563,
      "8eleg5ac7acgro": 2564,
      "quinbutome": 2565,
      "glcnac1pp3p": 2566,
      "glcnmeocm2pam": 2567,
      "fuc2ac3ac4ac": 2568,
      "rha2me3me4nfo": 2569,
      "glc1ole3ac4ac": 2570,
      "glc1ole3ac4ac6ac": 2571,
      "glc1ole3pp": 2572,
      "glc1ole3p4p6ac": 2573,
      "man1s3s4s6s": 2574,
      "man1s2s4s6s": 2575,
      "quinac4nbutgro": 2576,
      "##alafo6n": 2577,
      "galnfoa3ac6n": 2578,
      "altnaca1prop": 2579,
      "hep4p": 2580,
      "hep3me6me": 2581,
      "quinalaacgro": 2582,
      "fucnacnmen": 2583,
      "galfoacpgro": 2584,
      "galfoacopgro": 2585,
      "glcn2myr3myr4pp": 2586,
      "glcn2myr3myr4petn": 2587,
      "##groa6n": 2588,
      "gala4ac6ser": 2589,
      "glcn2ste3nmyr": 2590,
      "glcn2ste3pam4p": 2591,
      "6dxylhexome": 2592,
      "##7pp": 2593,
      "legnacala": 2594,
      "6dgulhepf": 2595,
      "6dgulhepop": 2596,
      "##2vac6acnme": 2597,
      "6dhexn": 2598,
      "fruf1feroac": 2599,
      "glcnac1s": 2600,
      "glcnac1nac": 2601,
      "glcnac1thr": 2602,
      "gal1me3p": 2603,
      "quinalabutgro": 2604,
      "glc3p4p": 2605,
      "glc3p4p6ac": 2606,
      "galnac1pp4s": 2607,
      "galnac1pp4s6s": 2608,
      "galnac3pgro6ac": 2609,
      "mannacanetn": 2610,
      "gal6pchooac": 2611,
      "glcn2myr3npam": 2612,
      "rhaopome": 2613,
      "frufoac1fer": 2614,
      "quinac4ngroa": 2615,
      "mannac2nac6thr": 2616,
      "6dtalnac1pp": 2617,
      "rhanac3nac4ac": 2618,
      "neu4ac5gc9ac": 2619,
      "5dpen": 2620,
      "rha1gro3me": 2621,
      "glcn6pcho": 2622,
      "glcnbutoac": 2623,
      "glcncm1ole": 2624,
      "glcn1ppetn2ste": 2625,
      "glcn1ppetn2lau": 2626,
      "glcn1ppetn2dco3dco": 2627,
      "mannaca2nac4me": 2628,
      "##oco4oco": 2629,
      "galanserac": 2630,
      "ara2ac5p": 2631,
      "galf6pcho": 2632,
      "quiomen": 2633,
      "quinacnaspac": 2634,
      "glcn1petn2ste": 2635,
      "glcn1petn2myr3myr": 2636,
      "glcnaca3nalafo6n": 2637,
      "pse5am7groa": 2638,
      "glcnac3nac4ac": 2639,
      "ldmanhep2p4p": 2640,
      "alln1p": 2641,
      "gal2f3me": 2642,
      "glca4ac6ser": 2643,
      "galf1et": 2644,
      "galf1bn": 2645,
      "gala3ac6thr": 2646,
      "glc1s2ac3ac6ac": 2647,
      "glcn2ole6ac": 2648,
      "ldmanhep4petn7petn": 2649,
      "##hxo4hxo": 2650,
      "glc2me6n": 2651,
      "kdo2p8n": 2652,
      "glcn1p2ste3myr": 2653,
      "glcn1p2ste3pam": 2654,
      "glcnaca3ac4nac": 2655,
      "glcncmocm1vac": 2656,
      "glcncmocm1ole": 2657,
      "dlglchep6me": 2658,
      "man4suc": 2659,
      "rha2gro": 2660,
      "kdo4ac5ac": 2661,
      "glcn2myr3nmyr4p": 2662,
      "pau3me7ac": 2663,
      "pau3me7pp": 2664,
      "glcnacolacgro": 2665,
      "rha1pp4n": 2666,
      "rha1pp4nac": 2667,
      "kdo7pyr": 2668,
      "glcn1pp2lau": 2669,
      "glcn2mar3myr": 2670,
      "glcn2mar3pam": 2671,
      "glc2vac6acncm": 2672,
      "glc2vac6acnocm": 2673,
      "man2but6ac": 2674,
      "6dgalhepf": 2675,
      "6dgalhepop": 2676,
      "acef": 2677,
      "glcocm2vac6acnme": 2678,
      "fuc1gro3nbut": 2679,
      "rha3pme": 2680,
      "##menlac": 2681,
      "glca1pp2nac3nac": 2682,
      "glca1pp2nac3n": 2683,
      "glcnocmoach": 2684,
      "glcn2ach3npam": 2685,
      "ara1pp4n": 2686,
      "ara1pp4nfo": 2687,
      "qui2n6s": 2688,
      "glc1etn2ac": 2689,
      "glc6acnmeocm2vac": 2690,
      "glc6acncm2pam": 2691,
      "glc6acncm2vac": 2692,
      "glc6acncm2ole": 2693,
      "galoacnfoan": 2694,
      "glcnacoacocm1vac": 2695,
      "glcnacoacocm1pam": 2696,
      "glcnacoacocm1ole": 2697,
      "glc1pp6s": 2698,
      "glc1pp3n": 2699,
      "glc1p2lau3lau": 2700,
      "glcnme2vac3cm4cm": 2701,
      "man2oco6ac": 2702,
      "glcn2me2ole4cm": 2703,
      "glcn2me2ole3cm": 2704,
      "glcn2me2ole6cm": 2705,
      "glcncm1vacocm": 2706,
      "glcn1ppetn2myr3nmyr": 2707,
      "4deryhexoacn4en": 2708,
      "ddalthep3me": 2709,
      "ddalthepome": 2710,
      "##segro": 2711,
      "##se5ac7ac": 2712,
      "glcnac1vacoac": 2713,
      "glcnac1vacoacocm": 2714,
      "gal2nala": 2715,
      "fuc1n4nbz": 2716,
      "neu2p5ac": 2717,
      "neu2p5gc": 2718,
      "rha1dco": 2719,
      "rha1f4nfo": 2720,
      "glca1pgroa6n": 2721,
      "hexn2me": 2722,
      "quinac1gro4n": 2723,
      "mannac1me3ac": 2724,
      "mana1pp2nac3nac": 2725,
      "rhaomecmeofo": 2726,
      "rhaomecmenlac": 2727,
      "glcn2dco4p": 2728,
      "glcn2dco3myr3p": 2729,
      "glcn2dco3dco4p": 2730,
      "glcn2dco3dco4ppetn": 2731,
      "glcomenomyr": 2732,
      "glcnac1pam6ac": 2733,
      "glcnac1pamoacocm": 2734,
      "gulnac1n6me": 2735,
      "4dlyxhep1me": 2736,
      "4dthrhexnaca4en6n": 2737,
      "glc2pam6acncm": 2738,
      "bac1pp2ac": 2739,
      "bac1pp2ac4ac": 2740,
      "glcn2pam3nmyr4p": 2741,
      "sug2ac5me": 2742,
      "sug5ac7pyr8ac": 2743,
      "glcnac1ole6ac": 2744,
      "glcnac1oleoacocm": 2745,
      "galancysac": 2746,
      "6daltnac1pp4n": 2747,
      "6daltnac1pp4nac": 2748,
      "pau3me7but": 2749,
      "pau3me7vl": 2750,
      "man2oco3oco4oco": 2751,
      "man2oco3hxo4hxo": 2752,
      "2dthrpen4nme": 2753,
      "7dlyxoc": 2754,
      "8eaci5ac7ac": 2755,
      "8epse5ac7ac": 2756,
      "galcnac": 2757,
      "glc3petn6petn": 2758,
      "glcoetnn": 2759,
      "glc6ulon": 2760,
      "galofoan": 2761,
      "fucopome": 2762,
      "fuc1ferome": 2763,
      "rha2pcho": 2764,
      "glca1me2nac": 2765,
      "glcn2me3me4p": 2766,
      "glcn1me2s6s": 2767,
      "glcn1ste2myr": 2768,
      "ara1n4p": 2769,
      "ara1cer2ac": 2770,
      "ldmanhep2gly4p": 2771,
      "quinhsegro": 2772,
      "quinserac": 2773,
      "qui1cer6s": 2774,
      "qui2nbut4nbut": 2775,
      "kdn7pyr": 2776,
      "frufolau": 2777,
      "rib2ac5p": 2778,
      "rib4ac5p": 2779,
      "rib3ac5p": 2780,
      "rib1n5pp": 2781,
      "quinac1me4nac": 2782,
      "ddmanhep3p6p": 2783,
      "ddmanhep2petn7petn": 2784,
      "galncysgly": 2785,
      "glc6acnocm2vac": 2786,
      "xylf2me3me5me": 2787,
      "pse2gro5ac7ac": 2788,
      "oli3cnme": 2789,
      "all1s2s3s4s": 2790,
      "leg5fo7ac": 2791,
      "glc2ole6acncm": 2792,
      "glc2oco3ac": 2793,
      "glc2hxo6ac": 2794,
      "glcn2me3cm4cm6cm": 2795,
      "glc1ole3pp4pp": 2796,
      "5dpenf3cfo": 2797,
      "glcncm1oleocm": 2798,
      "glcn1ppetn2ste3npam": 2799,
      "glcn1ppetn2lau3lau": 2800,
      "glcn1petn2ste3pam": 2801,
      "acefa": 2802,
      "glcn2ach3npam4p": 2803,
      "fuc1n4nbz7et": 2804,
      "man2oco3oco4oco6oco": 2805,
      "man2oco3hxo4hxo6hxo": 2806,
      "7dlyxoct": 2807,
      "galcnac6p": 2808,
      "glcn1ste2myr3n": 2809
    }
  }
}