[PAD]
[UNK]
[CLS]
[SEP]
[MASK]
,
-
0
1
2
3
4
5
6
7
8
9
?
a
b
c
d
e
f
g
h
i
k
l
m
n
o
p
q
r
s
t
u
v
w
x
y
z
##a
##l
##1
##p
##n
##2
##c
##6
##m
##o
##e
##i
##b
##g
##r
##x
##h
##d
##t
##4
##u
##s
##f
##v
##5
##3
##z
##y
##7
##9
##8
##w
b1
##ac
##lc
glc
##nac
a1
glcnac
##al
gal
##an
man
##uc
fuc
a2
##eu
neu
neu5
neu5ac
galnac
rh
rha
##gc
neu5gc
##yl
xyl
##me
glca
kd
glcn
##he
ol
##hep
##man
##dman
##dmanhep
##ra
ara
kdo
ldmanhep
##6s
##op
galf
araf
##2s
gala
##3me
qu
qui
he
##ome
hex
##ro
kdn
##ru
fru
##et
##3s
fruf
glcnac6s
##6p
glc1
##er
##etn
##os
##cer
ri
rib
##do
ido
##6ac
glc1cer
##4p
##1p
fucnac
idoa
b2
##4s
quinac
##2ac
glcn2s
##4ac
##yr
hexnac
mannac
##oac
##3ac
##4n
##nh
anh
##dro
##ydro
anhydro
gal3me
ldmanhepop
##2me
##gro
6d
idoa2s
##6me
##4me
ribf
man6p
ddmanhep
gal3s
##tal
6dtal
##ch
##cho
##1n
glcn2s6s
galnac4s
##2nac
##3nac
galn
gal6s
##5ac
##fo
galos
glcn1p
##petn
##bu
##but
glcn4p
glc2s
glcnacos
glc6ac
di
manome
dig
manop
##ul
##3n
rha4n
##ala
mana
mannaca
gul
galnaca
##am
man3me
##3s6s
glcnac1n
##myr
##4pyr
##3p
glcnacop
glcnac6p
##6n
xylf
ribop
##9ac
kdoop
##3ac4ac
galop
rha2ac
##5p
##ol
##1me
ldmanhepopetn
##2p
##7ac
##hex
ps
##be
abe
pse
##cm
glcop
##2me3me
al
##4nac
man1p
##ic
rhaome
glcn2
rib5p
rha4nfo
rhanac
gal4s
glc2ac
##2nac3nac
glca4me
##ns
##ocm
ins
##3s4s
galnac6s
##5ac7ac
glcnacopcho
neu5ac9ac
##nic
rha2me
glcnaca
manos
galnacos
fuc2me
dig3me
glcome
rha3me
##hr
##en
glc6me
oli
man6petn
gal3p
quin
onic
glc6s
gal6p
glcnac1p
neu4ac
gala2nac
glcn2s3s6s
glc6p
manopetn
ap
ty
fucome
api
tyv
fuc2s
##3ac4ac6ac
##eg
rhaoac
##lac
##co
##thr
gula
##ly
apif
galnacop
glca3s
glcnac6pcho
##cl
ribf1n
gulnac
gal2ac
glc2s3s6s
gal4pyr
fucn
qui3nac
##ara
##3myr
manf
glca6me
qui4n
col
##ar
ldmanhepoppetn
neu4ac5ac
##ep
hexa
hexome
##aep
##6aep
ara4n
##arahex
glcnac6ac
all
##au
6dal
mana2nac3nac
glcnac6petn
galoac
galnala
mu
##pgro
##6pyr
gal4pyr6pyr
mur
glcn2myr
##lau
##3s4s6s
alt
glcnacoac
##3ac6ac
manf1me
4d
murnac
glca2s
glcn3s
##fer
##6petn
##nbut
rha3ac
gal2s
ldmanhep4p
fucnacn
ko
galopgro
glc3me
glcnacn
glcaome
fucnac4n
6dalt
##4ac6ac
6dtaloac
##olac
glc2me3me
manoac
6darahex
gal4me
kdo4p
gulnaca
leg
##vac
rha4ac
fruf1
galome
man2ac
pen
##1cer
man6me
galaome
pse5ac7ac
gala6n
##3petn
galopyr
##1pp
6dtal2ac
##2nac3n
par
6darahexome
gal2me
galf2ac
##bz
gal6me
glc2s3s4s6s
##anam
man6ac
kdooppetn
galnacopcho
##3lac
glc3s
glc4pyr
ldmanhepopocm
galnacome
glc1p
4dthr
##4en
galnac6p
ly
##3et
glc2
glcos
##opn
lyx
a6
tal
man6s
rha4nac
gala6me
glcn3n
quinac4nac
galnacaoac
4dthrhex
gal1cer
qui3n
idoa2s3et
##2n
glc2p
fucoac
##4s6s
gala2nac3ac
##dco
glcnacan
glcnme
##4nbut
digome
##alaac
kdoopetn
glcnaca3nac
##um
gala6
##4me6s
glcn1p2
##coum
glcn2myr3myr
bac
er
mann
##gly
glc3ac
man2
galnac3s
##4pgro
mannacanam
##gron
psenac
b6
##leg
##obz
##eleg
gal6ac
rha3petn
rha4nbut
mannaca3nac
##ole
##2pam
gal3pyr
ery
##1fer
##dg
##4lac
glcnac3ac
man4ac
ldmanhep6petn
galnac4s6s
glcopyr
neu9ac
##8me
man4me
fuc3n
##2ac3ac
glc2s4s6s
glc2ac3ac6ac
6dmanhep
ar
##a4en
##3dco
glcnac6
ara1p
galaoac
fuc2s4s
##lyx
bac2ac
gal3pyr4pyr
##te
##6sn
glc2s6sn
ul
##1vac
man1
man2p
##opgro
##5ac7
4dthrhexa4en
ulos
8eleg
##6et
fuc2me3me
glc1fer
mana2nac3n
glc6pgro
gal1p
man2me
glcn2pam
araopn
##opetn
aran
##ser
##alhep
fucf
neu5acoac
xylome
glcaos
rib1p
quinacnbut
glc2me3me6me
3d
ddg
##lu
##6cl
glc4me
glc3ac4ac6ac
neu1n
neu5ac7ac
galnacan
galnfo
su
##4cl
##3c
fuc3me
glca6
glca2nac3nac
glcn2me
fucnacoac
idoa2s3me
6dtal3me
oli3nac
glcnac6gc
ara1p4n
sug
##3lau
##8s
rha4me
glca2me3me
glcn6ac
##3me4me6s
xlu
##1gro
##obut
glcpgro
glcn6aep
gala1p
6dtalome
glcopgro
galnac6pcho
ddgalhep
xluf
glcgro
gala6ala
glcnac4p
fuc4s
##opyr
gala3me
glc2s3s
galnaca6n
abe2ac
gala2nac6n
fucnam
leg5ac7ac
penf
bac2ac4ac
11
##6f
##ys
##7petn
gal4p
gal2p
fuc3s
fucos
neu5ac9
rhagro
neu5gc8me
glc1n
glc1me
glc1gro
6dg
mana6me
pse5ac7
gal2ac3ac4ac6ac
##1coum
##or
glc4s
man3p
man1me
ldmanhepocm
qui2me
frufobz
##ama
rha2ac4ac
galnacaoacn
8eleg5ac7ac
thr
##rop
glcnacgro
glcnac3lac
man6aep
glca6ac
hexnacos
mana2nac
quinbut
glcnac1pp
altnac
glcn3n4p
glcnmeocm
glcn1p2myr
man2petn
##lyxhep
thre
sor
##oetn
##omyr
glcnac3ac6ac
##alys
gal4cl
fuc2ac
rha2me3me
glc1ole
##ery
##lys
man1s
##nfo
galnac3ac
rha3ac4ac
xyl3me
quinac4nbut
mannac1p
##alafo
glcopn
fuc2me4ac
gal3pgro
##aric
fruf1cl
ulosaric
3dlyxhep
neu1n5ac
galnfoa
##3cme
6dgul
altnaca
dl
##6nac
##8ac
glc4ac
glcnac1me
gal2
rha1p
glca6s
glca2me
glcn6s
hep
##2ac3ac4ac
rha2ac3ac4ac
gula2nac3nac
gal2ac4ac6ac
qui4nfo
##lau3dco
6dtaloacome
glc2me3me4me
kdo4ppetn
psenacnbut
##xyl
gal6aep
fuc4ac
galnac1p
ldmanhep6p
galagron
glcn2s3s
glc2ac3ac4ac6ac
quinalaac
allnac
ldmanhep4ppetn
fucnacnme
##xylhex
1d
yer
glcnac3me
galfoac
manopyr
##ulo
##3nam
##3pgro
glcn2myr3myr4p
fuc3nbut
gal2pgro
##nam
##ero
##4f
xyl2me
##1pam
##groa
glc2s3s4s
glc2s3me4me6s
6dtal2ac3me
glc1pam
pse5ac7fo
##br
glcolac
glcnac3s
man2s
neu5ac8s
glca2nac
glca2nac3n
glcn3s6s
ldmanhep3petn
galfnac
gala4ac
gala2n
fucnac4ac
fucnac4nac
glcn2ste
6dxylhex
##5ac6ac
gal6petn
glca2s3me
6daltf
fucoacome
glcnacanalafo
neu5ac9nac
qui2me4n
##nme
##7p
glcan
glc6n
glcnac4me
gal4ac
gal3ac
man4pyr
rhan
rhaobut
xyl3ac
glcn3ac4ac6ac
gala2s
glc1pgro
galnaca3ac
galopcho
pse5
oli4me
galnacopgro
6dall
legnac
fruf1ac
6dgulhep
1dery
##2vac
##onic
##4ulo
##fero
##5gc
glc4ac6ac
glcnac4lac
gal3
neu1me
rha3s
glca2p
glcaolac
6dhex
6dtal2me
glc2ac3ac
rha2me4n
rha2me4me
rha2me4nbut
fruf1fero
ulosonic
gal1pgro
glcn2pam3myr
##3lau4p
sorf
glca2pyr
dh
##2ala
##on
##5s
##5nac
glcnac1
gal1me
gal6f
man3s
fuc4n
galnac6ac
neu5gc8s
xyl4s
glcn6petn
glcnama
glcnomyr
kdo5p
qui4nac
idonac
mannaca4ac
mannaca3nam
quinala
##thrac
alta
glc3me6me
qui3nbut
frufobz1fer
fruf1ferobz
dha
##2myr
##mar
##9me
glc3p
glcnacome
man3ac
man4lac
galnac3me
galnac1pp
galnac3pgro
xyl1n
glca2n
araome
kdo7petn
galf5ac6ac
##et4s
##et3s4s
glcn2s3me4me6s
mannacan
gal3s6s
glc6ac1fer
galopetn
glcn2vac
glca4me6n
rha3me4me
gal6pcho
fucnbut
glcn2myr3n
4darahex
glc2f
glcnme1vac
psenacnfo
glc1fer6ac
neu5ac7ac9ac
##lau3dco4p
gal3f
##et4s6et
##et3s4s6et
2d
##non
##6i
##6gly
##glc
##7fo
glc3s6s
glcnac4pgro
galgro
galalys
##an4en
man4n
man4ac6ac
fuc3s4s
rhaop
neu5gc9ac
xyl4ac
glcns
kdof
ldmanhep7petn
fruf4ac
frufoac
quinac4n
mannac2nac
6dtalnac
##3pyr
rhanac3nac
neu4ac5gc
gulnacanam
gal2s3s4s6s
6dalthep
fruf1coum
neu1me5ac
5d
##3fo
glcnac4pyr
glcnac6aep
gal6n
fuc3ac
fuc3ac4ac
galnac6me
rhaos
rhaolac
rha1gro
neu5gcos
glca3lac
glcagron
glcn6p
glcnbut
glcncm
kdo8
kdo1me
ldmanhepoac
##6ser
##opcho
galf6ac
##2suc
galaop
galaala
rib3p
##oacop
gal3s4s
galn2suc
glcn1ppetn
mannaca2nac
glcn2lau3dco4p
glca4me6me
glc3me4pyr
gulnaca3nac
6dtal2ac4ac
gala6lys
glcn1p2lau
man1etn
fuc2me3me4me
man2me4me
galnfoan
fucosome
glc1ole6ac
glca2nac3n6n
glca2pyr3pyr
9dg
b3
##as
##pcho
##pen
##oco
##in
glc3lac
##nac4ulo
galan
galolac
fuc1p
xyl4me
xyl2p
ara2ac
galf6p
quiome
fruf4ac6ac
glc1coum
quinacn
hexnacopcho
mannac6petn
6dtal4ac
glcn1petn
dig3ac
manopcho
##alabut
##am7
kdoopn
glcopetn
glcopcho
glcn2ala
glcnaca3n
quinfo
glcnac1prop
glc6pcho
qui4nalabut
manf1me5p
parf
4dthrhexan4en
frufobz1coum
glcn1p2myr3myr
glc1pam6ac
6dxylhexnac4ulo
pse5am7
2darahex
quinac4nhex
fruf1coumobz
##asp
se
##oc
##ido
##4gc
##3gc
glc3s4s
glc6nac
glc6i
glcnac6me
glcnac3nac
glcnac3s6s
glcnac3ac4ac6ac
##alt
gal1pp
##me5ac
glca4lac
glcaser
glcn1n
ldmanhep2p
galf5p
araf1fer
##2ste
gala2ac
gala6ser
##3meopn
qui6s
kdnome
fru3meopn
idon
quinacpgro
quinacopgro
##6meopn
ddmanhepop
manaoac
pse7fo
glcn2fo
glcn2lau
oli3me
glcnac1pgro
##thrpen
gula2nac3n
gal2ac3ac6ac
qui4nbut
alln
all2ac3ac
mana2nac3nac6n
glcn2myr3dco
glcn2myr3lau4p
6daltoac
glc2me3me6s
gala2nac3ac4me
neu1nme5ac
##4cl6cl
glca6gron
pse5ac7but
man3pme
glcnmeocm1vac
glcopnomyr
gal2f
gal2pgro6meopn
##2myr3myr
glcnme1vacocm
kdo8p
2darahexa
sed
##idohep
4eleg
fu
ld
##nala
##2f
##cn
##6ala
##6thr
##ogly
##7cm
glcf
glc4p
glcnac4nac
##alac
##alalac
gal4ac6ac
gal4f
man3n
manolac
galnac6petn
rha2s
xyl2nac
xyl2ac3ac
glca4ac
ara2ac3ac4ac
ldmanhep7p
galf1
gala3ac
galaser
glc1s
quinacoac
##oacn
man6pcho
ddmanhepopetn
ddmanhepoetn
galn2ala
##3pam
glcn2ole
##5ac7ac8ac
fuc2me4nac
fuc2s3s
gulnacan
qui4nalalac
all6ac
galoacopyr
4dery
ldmanhep4petn
koopetn
glcosn
##glyac
fuc3nalaac
##lyxhex
##serac
glc4me6me
glc2me3me4me6me
ldmanhep6p7cm
##nmeocm
6dtal2me4ac
alta2s
##aspac
ldmanhep2ppetn
sedf
4eleg5ac7ac
fus
ldidohep
##5ac7ac8ac9ac
##1etn
##ncm
##6br
##gra
##xo
##hxo
##4cn
##f3c
##5nam
##lcnon
glc5
glc2me
glc3n
glc3ac6ac
glcalys
glcnac3n
man3cme
fuc2n
galnacoacop
neu5gc9me
xyl2ac3ac4ac
glca2ac3ac
glcaopyr
ara4ac
kdo2me
kdo2p
galf3ac
fruf6ac
fruf6f
ido2s
idoa2me3me
ldmanhepopopetn
idoa2s6me
galnama
glcn1p2pam
glcn1p2ste
##but7ac
glcn4petn
glc6acpgro
glc6acopgro
dig3fo
manopme
galnaca4ac
glcnacopetn
rha2ac3ac
##7ac9ac
##4nac5nac
glcnaca3ac
fuc2me4me
oli3cme
glc6petn
gula2nac
fucnfo
fucnalaac
fucnthrac
galoacpgro
galoacopgro
altf
glca2s3s
gal2s6s
6daltnac
glc2me3me4me6s
6darahexnac
leg5ac7
glc3s6et
glc2et4s6et
glc2et3s4s6et
mann3n
man2f
6dmanhep2ac
3dthrpen
glca6thr
ddgalhepome
xlufome
qui2me4nbut
fuc2ac3me
mannac1p3ac
fruf1cl4
fruf1cl6cl
dlglc
gal2et4s6et
gal2et3s4s6et
6dtal2ac3me4ac
glca2nac4me
galnaca3ac6n
6dall3me
glcnac1etn
kdo5pgro
idonac6nac
xyl1n2me
glcn2myr3nlau
glcns6s
5dlyx
glcncmocm
9dglcnon
pse5am7gra
##3gc4gc
galf5pyr
idon6n
##lyxhexome
##f3cfo
dlglchep
9dglcnon5nam
as
pau
si
uro
##1ole
##pro
##ngro
##n4ulo
##2gc
##2lau
##cet
##omar
##5me
##5am
glc5s
##nacnbut
glcnac1gro
glcnacpcho
##alalys
gal6
gal3n
gal3lac
man4s
neu4nac
neu8me
neu5fo
neu5acos
neu5ac8me
galnac4pyr
rha2
rhapgro
rhaopgro
rha3cme
neu5gcome
xyl2f
glca3ac
glcnomar
##hepglc
kdo4ac
ldmanhepoetn
##oppetn
galathr
##6acnme
glc1cer6aep
quinacop
quinac4p
quinac4ac
##2ach
glcn2s4me6s
mannacoac
mannac4pyr
ldmanhepopoppetn
6dlyxhexome
glcn1p3n
##3nfo
##3pcho
glcnacopyr
glcnacopgro
##1me2s
abeoac
psenbut
glcn2gly
gal6pgro
##cl6cl
gal2ac3ac
##3myr4p
qui4nglyac
##pgroa
gal2s3s
glcnacnama
fucnac4nme
##1pp2nac
glc2gc
glc2groa
glc2br
qui3nfo
##dco3dco
glcnacanala
glcnme1pam
glcn1p2lau3dco
psenacngro
galaoacome
8elegnacnbut
fucfnac
glca6lys
gala1prop
glcgroa
neu5ac9n
glcnmeocm1pam
glcnmeocm2vac
dlhepglc
man2s4s6s
6dxylhexn4ulo
glc2ac3ac4pgro
glcn2myr3nmyr
6dalthep3me
glcn1p2lau3lau
glcn1n2gc
glcn2myr3dco4p
galf1oc
fus5ac
fuc2nam
galf3ac5ac
asc
pau3me
sia
uronic
##cetlys
neu4nac5ac
psenbutnfo
glcnme1pamocm
dlhepglcome
9d
aco
ta
##a6n
##1s
##2ole
##cf
##if
##4fo
##acme
glcoac
glc4n
glc3s4s6s
glc4lac
glcnacolac
glcnac4f
gal3ac4ac
gal2me3me
gal3ac4ac6ac
gal1gro
fuc4me
fuc4nbut
fuc1coum
neu4me
neu7ac9ac
galnac3ac4ac6ac
rhacme
rha1pp
rha4pgro
rha1fer
rhaopetn
rha3pgro
neu5gc7ac
xyl2s
xyl2ac
glcaoetn
glcnp
glcn6me
glcngly
ara4s
kdon
kdoome
kdooac
kdo8ac
kdo7p
ldmanhep1me
ldmanhepogly
araf3me
gala3p
gala2nac3nac
gala2ac3ac
##3me6s
##3me6me
kdn5ac
kdn9me
##3ste
fruf6p
##oste
rib2ac3ac4ac
##4petn
idoa1me2s
quinac1n
##2ac4ac
glcn2suc
##3ac6gly
idoa2s6s
idoa2s3s
idoa2s3ac
ddmanhepopgro
ddmanhepobut
ddmanheppgroa
gal3s6et
##tala
glcn1pp
##butala
glc6ac1coum
dig3ac4ac
##3nbut
##3nmyr
mana2ac
gul4nac5nac
glcnac6pet
glcnac6pgro
ribopetn
psif
pse5ac
man1petn
glcn2but
glcn2mar
glcomeopyr
gal3p4p
gal3pcho
neu4ac5ac7ac8ac9ac
fucome1coum
fuc2s3s4s
gal2ac4pyr
gal2ac3ac4ac
qui4nh
qui4naspac
hexa2nac3nac
galoacn
glc3me6s
glcnacnalafo
gulnaca3nam
gulnacaoacn
gulnaca3ac6gly
pse5ac7acnbut
kdooppetnn
4dthre
glc2vac
glcosnmeocm
gala2nac3ac6n
glcnaca3nac4ac
man2but
glcnac3ac4pgro
man4me6me
6dmanhepop
aric
fuc2me3me4n
mana2nac3nam
xluf1me
glc2s3s4me6s
gal2pcho
neu5ac9me
6dgalhep
glcn3n4pp
glcn3n4ppetn
glcn1p2myr3dco
glcn1p2myr3lau
galnac1p3ac
allnac6me
xyl2me4me
gala2nfo
rhanfo
legnacnbut
legnacnam
xyl1n4me
glcn1ppetn2myr3myr
galf6pgro
glc1coum6ac
glcopetnn
glcn2ala3ac
glcn2lau3lau4p
gula2nac3nam
ldmanhep2ppetn4p
glc5cf
glcn1p2ste3ste
leg5ac7but
5dlyxf3cfo
rha2cl
##3nfoa6n
gal2ac3ac4pyr
glc2groa6ac
aconac
tag
fuc1coumome
neu4me5ac
ldmanhep1me4p
ddmanhepopgroa
ac
dd
vi
yero
##lin
##1cl
##pa
##pp
##pam
##ngroa
##2but
##cys
##mal
##onac
##ofo
##i5ac7ac
##i6cl
##glu
##hpa
##dhpa
##4cm
##4dhpa
##s3s4s6s
##fru
##5but7ac
##3cm
##7nac
##7am
##8n
##8ala
##lchep
glcocm
glcobz
glc6f
glc3gc4gc
glcnac6n
##alnon
gal4n
gal4pgro
gal6nac
gal1etn
man1n
man3s4s6s
man1cer
man2n
man6f
fuc1gro
neu5pp
neu5ac8ac
galnac4ac
galnacgro
galnac4me
rha1n
rha3p
rha1me
xyl1p
xyl1cer
##men
glcaop
glca2ac
glca3nac
glca1cer
glca1pp
glcngc
glcnam
glcnocm
glcn2ach
ara3ac
ara3ac4ac
ara1pp
araoacop
kdo5s
galfpgro
galfopgro
arafome
araf1me
araf2ac3ac
##2s3s6s
##2s3s4s
galaopetn
galaalalys
qui2n
qui4cn
kdn9ac
kdn8me
fruf6n
fruf6nac
fruf4f
fruf6i
fruf6br
glc1nac
glc1et
glc1etn
glc1lin
##6acncm
##4ppetn
##1prop
idoa3s
quinacome
##4ac5ac7ac
##4ac5ac7ac8ac9ac
hexnacopetn
mannac4pgro
mannacopyr
##oach
##oacocm
##4nfo
6dfru
##4me6n
##4me6cl
ribf3ac
ribf5p
##but7fo
glc2s4s
glc2s3me6s
glc6acnmeocm
glc6acncm
dig4me
manopome
mannaca4me6n
##3pp
##3ac4ac6br
rha2ac3me
glcn2gc
glcn2alaac
gal4s6s
glc2ac4ac6ac
glc2ac4pgro
##3s4s6p
glcnacaoac
glcnaca6gly
glcnaca6ala
apifome
ribf1n2p
##araf
neu4ac5ac9ac
galoacnfo
glcnacoacocm
murnacala
murnac8ala
glcnacnala
gulnacaoac
gulnaca6gly
leg5am
fruf1s3s4s6s
man2ac6ac
glc1pp
glc1p2lau
fucoacngroa
glcnme2vac
gala6thr
gala6cetlys
glcn1p2mar
glc3ac4pgro
man2oco
man2cl6cl
mannaca3nac6ala
glcnac6i
galaoacnam
fuc2me3me4ac
ddglchep
neu5ac7ac8ac
glca6ala
glcn2me3p
glcn2me2ole
fucnam3ac
gal2pyr
glcnmeocmoste
mannac1p4ac
mannac1p3ac4ac
fruf1cl4f
fruf1cl4cl6cl
fruf1cl4me6cl
glca6ser
hepop
galnac1pgro
1dalt
fuc3nbut4ac
##br6cl
man2s3s4s6p
6daltfoac
rhanpro
gala2s3s
pse5but7ac
pse5but7fo
6dallome
fruf1ac4ac
neu1me4ac5ac7ac8ac9ac
gal1pgro2ac3ac
sorf1cl
##5nac7nac
glcn2vac6ac
glcns3s6s
6dtalnac4ac
5daraf
glcncm1vac
glcn1ppetn2myr
9dgalnon
glcnaca3nbut
##althep
glcn2myr3lau4ppetn
##oacn4en
4deryhex
kdo2pgro
glcn1p2pam3myr
oli3cme4ac
altfoac
fruf1cl4i6cl
fruf1cl4br6cl
dlglchep3me6me
9dglcnon5nam7ac
9dglcnon5nam7am
gal6ulo
kdo4ac5s
glc2gc3gc4gc
glc2br3ac4ac6br
ddalthep
vionac
yeroac
araf2ac3ac5ac
mannac4pgroa
6dfruf
leg5am7ac
fruf1cl4f6cl
sorf1cl4cl6cl
9dgalnon5nac7nac
0d
3dmanhep
7lac
a4
a3
b4
dhex
per
suc
##p3
##pyr
##p3pp
##neu
##nocm
##2groa
##6cm
##6gron
##6lys
##oor
##omal
##e5ac
##ios
##h6ac
##ton
##4ala
##se
##suc
##f3cme
##3ala
##win
##ac6n
glc3ac4ac
glc2nac3nac
glc4pgro
glc3pgro
glc3gc
glcomal
##nac4nac
##naca4en
glcnac4n
glcnacala
glcnac3ac4ac
glcnac3s4s6s
glcnac1cer
glcnac1vac
glcnac2ala
glcnac4dhpa
glcnac2groa
gal3nac
gal3ac6ac
galanam
gal2n
gal5nac
galpcho
gal4nac5nac
gal1s
man3s6s
man5p
manoetn
man3fo
fuc1n
fuc1vac
fucobut
fuc1pam
fuc4cn
neu1
neu2p
neu4gc
neu5acome
galnacoac
galnac1n
galnac3p
galnac6aep
galnac4ac6ac
galnac4pgro
galnac1etn
galnac4petn
rha1
rha3lac
xyl1me
xyl2me3me
##me3lac
glca1p
glcagro
glca6n
glca3fo
glcaalalys
glcaglu
glcnop
glcn4ac
glcnoac
glcn6n
glcnopetn
ara2s
araoac
ara2me
ara3n
ara1me
kdo1n
kdo7ac
ldmanhep2ac
ldmanhepgly
galfgro
galf1me
galf3lac
araf3s
araf1p
gala3ac4ac
galaolac
gala4petn
galap3
qui3ac4ac
qui2f
hexn
hexf
hexos
kdn1n
fruf3ac
##6pcho
glc1petn
glc1be
glc1oco
glc1hxo
riboac
rib2ala
##4p6ac
fucnac1prop
idoa2ac3ac
quinac4me
quinac1gro
quinacobut
##4ac6n
##4ac5ac7
mannac6ac
mannac1me
mannac4ac6ac
mannac4lac
##oacobz
##3ac5ac6ac
##4nalaac
gal3me4cl6cl
ldmanhepopome
ribf2ac
ribfoac
ribf5ac
ddmanhep7p
6dtalf
##cho6p
##1n2ac4ac
galnoac
galn6petn
##foala
glcn1p2ach
glcn4pp
glcn4p6ac
glcn4ppetn
glc6acop
glc6acgro
glc6acnme
dig4ac
dig3cme
manopopyr
##3npam
rha4nlac
mana1pp
mana2ac3ac
mana1pp2nac
mannacaoac
mannacaala
mannaca1gro
mannaca6thr
guln
gulan
galnacaala
galnacaser
##3p6ac
glcnacopoach
riboppgro
rha2ac3pcho
##2p5ac7ac
pse4ac5ac7
glcop1ole
rhaomec
glcn2dco
glcn2dco3dco
rhanacoac
glc2ac3s
glc2ac3ac4ac
fuc2me3s
dig3me4me
glcomen
oli3n
oli1me
quinthrac
quinglyac
quinaspac
quinbutala
quinme3lac
glcnac1pam
neu4ac9ac
neu4ac7ac9ac
gala2nac4ac
gala2nac6me
fucome1vac
fucome1pam
tyv2me
rhaoacome
##thralt
gula2s
gula2n
apif2ac
glca3s6me
ribf1n5p
gulnac3ac
gulnac1n
gal2ac4ac
fucnasp
fucnmen
qui3nac4me
qui4nme
qui4nserac
qui4nbutala
allome
all3ac
galoacop
galoacnala
murn
glcn2myr4p
glcn2myr3lau
alt3s
alt3s4s
glcnacoacolac
4dlyxhep
murnac6ac
murnac1me
ldmanhep4pogly
koome
glc2me3me5me
gal4me6me
leg5ac
leg4ac5ac7ac
galomef
galomenala
6dtal2ac3ac
gal2me6me
galf2ac3ac5ac6ac
glc1p6ac
glc2lau3dco4p
lyxf
lyx2me
talnac
4dthrhexoacn4en
4dthrhexnaca4en
qui3nalaac
qui3nthrac
qui3nserac
glc2pgro
glc2pam
glc2pp3pp
glc2p3p6ac
fucoacnam
glcnacanalaac
##alaac4nalaac
glcnaca3nac6n
glcn1p2dco3dco
bac1pp
bac1n2ac4ac
erwin
man2br
psenacobut
##obz1coum
eryome
fuc3nfo
glcnac6nac
glcnac6cl
galaoacthr
##te6ac
man1ser
##5ac7pyr
8eleg5but7ac
glc6pgroa
glc6pgroac
man2me4n
man2me6me
glcn2pam4p
glcn2pam3nmyr
##serbut
fucf2ac
rib1p2ala
3dxylhex
neu1n5gc
##3cn
glca6etn
glca6gly
glca6thrac
glca6cetlys
glca2nac3nac6n
sug2ac
sug2ac3ac
sug5ac7pyr
gala1p6n
xluf3me
glcnac4pcho6p
glc2s3s5s
fucnam1me
rhagroa
glc1ngc
glc1n4me
glc1me2s3s6s
glc1groa
man3pgro
qui2me4nac
frufobzoc
8eleg5ac7ac8ac
mana2nac6p
rha2me3me4me
man1s2ac3ac4ac
galnac3ac4pgro
glcopn1pam
3dlyxhep2me
galnfoa6n
glc4ac6pcho
glcnac1me6s
rha1prop
glca2me4me
kdo4ppetn8n
ldmanhep6ppetn
galfoacgro
galfoacolac
glcn2myr3myr4ppetn
glc1pamopn
man2s6s
man2s3s6s
glcn2ste3myr
glcan2but
glcnac4me6me
legnacnala
6dgulhepome
glcnac4lac6ac
gal3cl6cl
6dhexnac4nac
glc2ac3ac5ac6ac
rha2me4nfo
glcn2pam3myr4p
glcnac1ole
glcnac1ser
fuc4nme
idonac1n
mannaca3nam6thr
alta2n
galnac3pgroan
mannacanoor
2dthrpen
glcns3s
frufoacobz1coum
6dtalnacoac
6dalthepf
fruf1coumoacobz
rha1gro3petn
kdo8petn
galancys
ara2ac4ac
quinacnalaac
glcopchogro
glcnaca3nsuc
glcnaca3nfoala
pse5am7gc
gala2ac4fo
glcn2lau4p
glcn2lau3myr4p
oli3me4ac
kdo8pp
glc4petn
rha2s3s4s
glc1ste6ac
##3pam4p
gulnacanetn
fus5am
ldidoheppro
glc5n
glc2me4me
glcnac3n4ac6n
dig3fo4fo
gula2nac3et
6daltnac1pp
6daltnac3pcho
leg5ac7ala
5dlyxf3cme
dlglchepome
gal6lac
glcn2myr3nmyr4ppetn
pau3me7
9dneu
9dthralt
glcnacolacala
gal2me3me4me
glcnprop
glcnp3nfoa6n
gala2nac3nac6n
glcn1pp2myr3myr
glcnac6petg
glcnac6petnac
glcn2but3nfoa6n
gal3pcho6petn
qui4nhserac
qui4nhserbut
glc2vac6acnme
tagf
neu4me5ac9me
aci5ac7ac
##3cm4cm
glcocm6acnme
glcnocm1vac
glcn2ach3myr4p
qui2nalaac4nalaac
glc1lin6ac
galoacnfoa
glcn1p2mar3pam
man2oco3
gala2s3s6me
5daraf3me
glcn1ppetn2myr3lau
4deryhexan4en
0dhex
7lacton
pernac
##iose
##3ala4ala
glcnac2groa6p
galanam3ac
fuc1vacome
fuc1pamome
neu4gc5ac
glca3fo4me
ara2s4s
gala3ac4ac6gron
gala4petn6lys
glc1beh6ac
rib2ala5p
fucnac1prop4n
ddmanhep7pcho
glcn1p2ach3myr
glc6acnme2vac
mannaca1gro3nac
pse4ac5ac7but
glc2me3me5me6me
glc2pp3pp6ac
erwiniose
rib1p2ala3ala4ala
3dxylhexome
glc2s3s5s6s
frufobzocin
glcan2but3nbut
mannacanoorn
2dthrpen4n
glcnaca3nsucac6n
glcnaca3nfoala6n
9dneu5ac
9dthraltnon
7lactone5ac
7d
8e
8ep
ga
tala
##1et
##prop
##2et
##2gro
##2petn
##2nbut
##2gly
##2lau3dco
##2dco3dco
##6lau
##6ulo
##6oco
##6hxo
##ef
##bn
##4bz
##4oco
##4hxo
##f4nfo
##vl
##5fo
##5cn
##3f
##7me
##7et
##8p
##aci5ac7ac
##lcnac
glccho
glc3nac
glcthr
glc3petn
glc4s6s
glcoetn
glc5nac
glc6thr
glcogly
glc6ulo
glc3f
glcnac4ac
glcnacgly
glcnacglu
gal4nac
galgron
galofo
gal3cn
gal1et
man6n
man3et
man4cn
man4dhpa
man3cn
fucop
fuc1cer
fuc1pp
fuc1fer
fucoetn
neu5ac6ac
galnacn
galnac1me
galnac3pcho
rhaf
rha3n
rha2p
rhaopyr
rha3pyr
rha1etn
neu5gcoac
neu5gcolac
xyloac
xyl4n
xyl1pp
xylobz
##meome
##meofo
glcaoac
glca3n
glca1me
glca1gro
glcaobut
glca1pp2nac
glcn2ac
glcn2me3me
glcn1vac
glcnopyr
glcn3lau4p
glcn1me2s
glcn1s
ara3me
ara1n
ara2p
ara1cer
ara2ac3ac
ara1pp2nac
kdo5me
kdo7me
ldmanhepome
ldmanhep3p
ldmanhepgron
ldmanheppgroa
ldmanhep2gly
galfop
galf1p
galf4pyr
galf3ac6ac
galf1cer
galf1pp
galfopcho
galfpcho
arafn
araf2me
arafgro
araf1pp
araf1gro
araf1coum
##2s4s6s
##2s3me6s
##2s3nbut
gala4me
gala1me
gala1pp
galaopyr
gala1pp2nac
quinh
quins
qui1cer
qui2nbut
qui2s3nbut
hexoac
kdnnac
kdn2p
kdn7p
##etg
fruf6me
frufol
fruf6lau
glc1f
##erac
##osome
##osin
rib2ac
rib4ac
rib3ac
rib1n
ribpgro
riboacop
##6acnocm
glc1cer6s
glc1cer3s
##4pp
##4pcho
fucnaca
fucnacop
fucnacome
fucnac3ac
fucnacpgro
fucnac1pp
fucnacopetn
idoaos
idoa1pp
quinacgro
quinac3nac
quinac3ac4ac
quinac1me
quinacnam
quinac2ac4ac
##2ac3ac6ac
##4ac6me
mannacome
mannac4p
mannac4ac
mannac3ac
mannac1n
mannacpgro
mannac1pp
mannacopgro
mannacgroa
##oacnbut
##3ac6n
##4nbz
gal3me6s
gal3me4s
ldmanhepopgroa
6didohep
idoa2s4me
ddmanhepome
ddmanhepoac
ddmanhep3p
ddmanhep2petn
gal3s4s6s
6dtalhep
6dtal1pp
galn1p
galn2ac
galn6me
galn1pp
galnpcho
galncys
glcn1plau3dco
##butgro
glc2ste
glc6acnbut
glc6acgroa
glc6acnocm
digoac
mannacaser
gul1pp
galnaca3me
galnaca3myr
galnaca6ala
glcnac1n6me
glcnac1n3n
glcnac1n6n
glcnac1n5cn
##myr3myr4p
##3p4p6ac
glcnacopgroa
glcnacopetg
glcnac6pyr
xylf2me3me
ribopgro
kdoopoetn
rha2ac3lac
##5pp
abe1pp
pse4ac5ac7ac
pse2p5ac7ac
pse2gro
glcoppetn
man1pp
man1prop
rib5pp
rhanac2me3me
rhanacnbut
rhanac3nfo
glc2ac6s
glc2ac6ac
ins3petn
rha2me4bz
glcnacaome
glcnaca3s
glcnacaala
glcnaca3nam
oli3c
quinlac
quinmal
gal6pyr
glcnac1p4pcho
neu4ac5ac7ac
fucome1fer
fucomeosin
apiome
apioac
tyv1pp
rhaoacolac
##thrhex
apifoac
apif1pp
galnacopetn
fucnala
fucnprop
##arahep
##3myr3p
qui4nalaac
col1pp
neu4ac5ac6ac
hexomeofo
all1s
all2s3s4s
galoacome
glcn2myr3pam4p
##lau3lau4p
altan
alt1me
alt2s3s4s
glcnacoacos
glcnacoac1vac
glcnacoacnala
4dxylhex
4dlyxhex
4dlyxhexome
murnacop
murnac1pp
murnacser
glca2s3ac
ldmanhep4p6p
ldmanhep4p6gly
ko2me
6dtaloacoac
manoacn
manoacome
manoacopyr
6darahexn
kdo4p8p
gulnacaoetn
legnfo
leg5but7ac
leg2p5ac7ac
leg5fo
fruf1fer
man2ac3ac4ac
man2ac3ac4ac6ac
man2ac4ac6ac
penome
pse5ac7acobut
6dtal2ac3ac4ac
par1pp
glc1p2myr3myr
glc1p2lau3dco
galnac6pgro
glc2ole
glc2lau3dco
glc2oco
glc2hxo
glc2myr3myr4p
glc2lau3lau4p
glcosin
lyx2n
lyxf3cfo
tal6p
tal5nac
glcn3nmyr
4dthrhex4en
gal1cer3s
gal1cer6aep
fucoacobut
fucoacosome
##dco3myr
glcnmeoste
gala6thrac
glcn1p2dco3myr
mann1n
mannpgro
mannopgro
mann2but
man2et
psenacnam
psenacoacnbut
rha3petn4ac
mannaca3nac6n
ery4ac
glcnac3ac4pyr
fuc3nme
fuc3nlac
fuc3ngly
6dmanhep1p
6dmanhepoac
6dmanhep3ac
galaoacolac
galaoacgron
##lyxoc
##te2myr
man1et
man2pme
4dthrhexa4enala
4dthrhexa4en6n
glcn2pam6ac
aranmeome
fucfoac
3dthrhex
3darahep
fuc3me4me
glca2nac3nac4ac
glcn2me3cm4cm
sugf
sugoac
sug2ac3ac4ac
gala3me4ac6me
penfome
gal4p6p
glc1me2s3me6s
glc1gro6petn
man1me4me
man1me2s3s6s
man1me2et
8eleg5ac7acgro
quinbutome
glcnac1pp3p
glcnmeocm2pam
fuc2ac3ac4ac
rha2me3me4nfo
glc1ole3ac4ac
glc1ole3ac4ac6ac
glc1ole3pp
glc1ole3p4p6ac
man1s3s4s6s
man1s2s4s6s
quinac4nbutgro
##alafo6n
galnfoa3ac6n
altnaca1prop
hep4p
hep3me6me
quinalaacgro
fucnacnmen
galfoacpgro
galfoacopgro
glcn2myr3myr4pp
glcn2myr3myr4petn
##groa6n
gala4ac6ser
glcn2ste3nmyr
glcn2ste3pam4p
6dxylhexome
##7pp
legnacala
6dgulhepf
6dgulhepop
##2vac6acnme
6dhexn
fruf1feroac
glcnac1s
glcnac1nac
glcnac1thr
gal1me3p
quinalabutgro
glc3p4p
glc3p4p6ac
galnac1pp4s
galnac1pp4s6s
galnac3pgro6ac
mannacanetn
gal6pchooac
glcn2myr3npam
rhaopome
frufoac1fer
quinac4ngroa
mannac2nac6thr
6dtalnac1pp
rhanac3nac4ac
neu4ac5gc9ac
5dpen
rha1gro3me
glcn6pcho
glcnbutoac
glcncm1ole
glcn1ppetn2ste
glcn1ppetn2lau
glcn1ppetn2dco3dco
mannaca2nac4me
##oco4oco
galanserac
ara2ac5p
galf6pcho
quiomen
quinacnaspac
glcn1petn2ste
glcn1petn2myr3myr
glcnaca3nalafo6n
pse5am7groa
glcnac3nac4ac
ldmanhep2p4p
alln1p
gal2f3me
glca4ac6ser
galf1et
galf1bn
gala3ac6thr
glc1s2ac3ac6ac
glcn2ole6ac
ldmanhep4petn7petn
##hxo4hxo
glc2me6n
kdo2p8n
glcn1p2ste3myr
glcn1p2ste3pam
glcnaca3ac4nac
glcncmocm1vac
glcncmocm1ole
dlglchep6me
man4suc
rha2gro
kdo4ac5ac
glcn2myr3nmyr4p
pau3me7ac
pau3me7pp
glcnacolacgro
rha1pp4n
rha1pp4nac
kdo7pyr
glcn1pp2lau
glcn2mar3myr
glcn2mar3pam
glc2vac6acncm
glc2vac6acnocm
man2but6ac
6dgalhepf
6dgalhepop
acef
glcocm2vac6acnme
fuc1gro3nbut
rha3pme
##menlac
glca1pp2nac3nac
glca1pp2nac3n
glcnocmoach
glcn2ach3npam
ara1pp4n
ara1pp4nfo
qui2n6s
glc1etn2ac
glc6acnmeocm2vac
glc6acncm2pam
glc6acncm2vac
glc6acncm2ole
galoacnfoan
glcnacoacocm1vac
glcnacoacocm1pam
glcnacoacocm1ole
glc1pp6s
glc1pp3n
glc1p2lau3lau
glcnme2vac3cm4cm
man2oco6ac
glcn2me2ole4cm
glcn2me2ole3cm
glcn2me2ole6cm
glcncm1vacocm
glcn1ppetn2myr3nmyr
4deryhexoacn4en
ddalthep3me
ddalthepome
##segro
##se5ac7ac
glcnac1vacoac
glcnac1vacoacocm
gal2nala
fuc1n4nbz
neu2p5ac
neu2p5gc
rha1dco
rha1f4nfo
glca1pgroa6n
hexn2me
quinac1gro4n
mannac1me3ac
mana1pp2nac3nac
rhaomecmeofo
rhaomecmenlac
glcn2dco4p
glcn2dco3myr3p
glcn2dco3dco4p
glcn2dco3dco4ppetn
glcomenomyr
glcnac1pam6ac
glcnac1pamoacocm
gulnac1n6me
4dlyxhep1me
4dthrhexnaca4en6n
glc2pam6acncm
bac1pp2ac
bac1pp2ac4ac
glcn2pam3nmyr4p
sug2ac5me
sug5ac7pyr8ac
glcnac1ole6ac
glcnac1oleoacocm
galancysac
6daltnac1pp4n
6daltnac1pp4nac
pau3me7but
pau3me7vl
man2oco3oco4oco
man2oco3hxo4hxo
2dthrpen4nme
7dlyxoc
8eaci5ac7ac
8epse5ac7ac
galcnac
glc3petn6petn
glcoetnn
glc6ulon
galofoan
fucopome
fuc1ferome
rha2pcho
glca1me2nac
glcn2me3me4p
glcn1me2s6s
glcn1ste2myr
ara1n4p
ara1cer2ac
ldmanhep2gly4p
quinhsegro
quinserac
qui1cer6s
qui2nbut4nbut
kdn7pyr
frufolau
rib2ac5p
rib4ac5p
rib3ac5p
rib1n5pp
quinac1me4nac
ddmanhep3p6p
ddmanhep2petn7petn
galncysgly
glc6acnocm2vac
xylf2me3me5me
pse2gro5ac7ac
oli3cnme
all1s2s3s4s
leg5fo7ac
glc2ole6acncm
glc2oco3ac
glc2hxo6ac
glcn2me3cm4cm6cm
glc1ole3pp4pp
5dpenf3cfo
glcncm1oleocm
glcn1ppetn2ste3npam
glcn1ppetn2lau3lau
glcn1petn2ste3pam
acefa
glcn2ach3npam4p
fuc1n4nbz7et
man2oco3oco4oco6oco
man2oco3hxo4hxo6hxo
7dlyxoct
galcnac6p
glcn1ste2myr3n
